memory_initialization_radix=2;
memory_initialization_vector=
111101000111011011111011001111011110111111111000011101000000000111111000111101110000001110111111101000000011000000001000010000,
111001101000001000001101010111100011110010011111100111000010111111101010110110010110010111001000011101101010110011100000010010, 
000001011111010111111101110000011110111110100001101110110110011000010011111101111000100011110011011111111100111011011000011111,
101111100000000001000001011001001001111101001000010010111101110111010110110110100110010100000011000101111110000101001111011101,
000010111000110000111100101000000000000000000111000110000001101111100100111001101110111100111101110111101101111010001111100010,
111111000110110010000010100111011100000001000111100011000110110000001010001001001000101110110111101000111111000001101111111000,
000000000000011001111111110000110001111110000111101100000001001111101110111001010000010100110101011000010000111110101000110000, 
111100000111110010110111010111111111110001010111100111000000110111110100000001100101111000111101010111111100110111001111110111,
111100010000011100000010001110111101000100100111110101111111101000111110000111000111000110111111010110111001111111111110110100,
111111101000111100000010100110101100001000011111001101000001111001111111111111110111101101000001101000010110111011010111101101,
000010000000010111111010000000011110111011000111110001111100110111010101111110111000100011110101111000101000111101110000100011, 
000001110000001011110111001111011100000011001001000100111000001110111101000101000000101001111001110111111011000000001111000101,
000101101000100001000000111000010100111010011111110011110111010111001010000011011111111011110101101111111101110110010111001101,
111111100111110110000010100110110111000110010111101001000110110000110100000010011000001010000011111111011111000100010000001011,
111110100111110011111110101000001011111111100111011110111000100000000011111011011000111001000011001111010100110011001111101101,
111011000110110001000101000111010011000010100111000000111111011111110111110000101111100000111010110111000101000101111111010011, 
000000000000010000111001001111101110000000010111111001111011101111011110000100001000000111110110011111111000000000001001001010,
000001101111100010111001100000011000000011011110110001111101100111110011111001011000001011000100001000001100000010001111010100,
000011110111111010111011111111001000111001011111001000000000100111001110000010100111110110000101110000001010110111111000100010, 
110110000111111010000011110111100110111011011000010101111000001000010000000011001100100001110100001000100101101111100000101011,
111001101000010000000101110000101001111011100110011111111001100110011110000110100111001001111111100000111100111110011001010100,
111010011110101100000001111111100110111111111000110111111101011111101001000100100111001101110110000000110100111000101111111100,
111001011110110011111010110111110101000010010000100110111111011000001000111010110000001100111110000111110000111101000111001111,
110010011111100010111110111000000111000000011110111101110011010000111001111011000000010001000110011000110100000000011000001111, 
000011000111110011111111101111111010000110111111111001111111011000010111111100100000100101111100000111100111000010001111110000,
111011110001000001000000110000010101000011011000100110111101110111010011000001101000010010000101001000011001000000101111000111,
111100010111111111001001010000010010110111111000000000000001001110101110001010001110111010000001001000001010000001110000000010,
000011110000000000111000110101011000000110000001100100111110001111111110110011101000000011110101101111011001101111111111111101, 
000101011000100101111010111000101010111001101111001111000110000111110011111101011000001001000001100111001000000010001000010010,
000010011000000000111010001000000110111001101000000111000011100111011100000000111000011000000100101000001100111110100111100110,
000010001111010110111011100110110001000001001111011101111010100000010100000000101000001111110110111111001111000010100000001010,
111100110111011111111010100000100111111101010111001110000111000110110001111111000000001111000010101000000010000100100111101011, 
111000000000110010000001001000001011111100100000001110001001110111110001000100111111111001110100100110001101000000001111100001, 
000001000000011101000000100000001110110011010111110110110100110111011100111000001101111001111100010000101100101101001111011001,
101111100111101000000001010110010110000110010111010011111010000000001101000110110000000100110010111111100110000101000111110111,
000111101111110010111111000000000110000000000000000010000000010111111000111100101000100100000011010111101111000011100000001111, 
111111010110110011000001100000001100000110001000101001000000011000011011111000000000010001111101100110110001000011111000001001,
111000010001000111000101010000010101101001001111001110000100011000001110111110001000001000000010100111001101111011110111000111,
111001001111011010000101101000010011000001100000001000000000100001000110000100101000101101000010010000001001111010101000110111,
111101011001000100000010011111001001110011100111000001111110101110110001111111001110011111111001000111100111111111110001000111,
111101101110111001000001101000100101000001110111100110000101001000000101111111011000100100111001011111000000110111100111111000, 
111011100000001111000111010111001000101101011000100101111000010000011110000100100110101001111100100111100101111010001000111011,
111001100000000110000010100111101111110101011111001010000110101111011001000011010111111100111010100000010000111100100101111111,
110101100000001101111101100000000000000100111111000100111101001111101001110111110000010011111001010111101110111000111110111101,
111100001111000101111000010000100110111111100111001011000000011111110011110111111000000011111101011000000110000110011111111000, 
111011110000011010000010110111111010111100010000101100110001000110101110110101100110101111000000010000011000000100101000000011,
111100010000001000111101010000101100111011101000101001000011000111101100000001001111101110111110010110111001000010000000010111,
111100011110111001000010100111111001000100010111110100110101100000000001111010011110110100111101100111011111111010010111111001,
000010111111100100000000010000000100001000010111111101111010011111111111101101000000000001111111011111101110111100111000000000,
001001011111111001101001011111000011111100101111101010000011000111111101000010111000011010111011111111101111111111101000000000, 
111101100111010011111110000001001010111100000000000000111001100111110110000001010000011011001011011111100001111110111111000011,
110000100110110111000001000111101100111100010110100011111110111111100110000001000110101001111111111000010000111000000111000111,
110001101111010101111100100111100110000010000111011110000001010001000011000011001000111000000111111000100010001101111111001100, 
110000111111110110000101100111101001000111000110111001111111010111011110000011110111100011111100111110100100111100100110110101,
000110100000100111000000000111101100111111001000011100110100100001100111110101001111001111111010011001111000111010100111100001,
001000111000010001111110100111000000110101011110100010111100000110111101000001110111100110111010011111001110111110100111110110,
111010000111100111111011000000010100000000000110100011000110110000011000111101100111111011001011010000100110000000111111111111,
000100001000000000111011011111111011000100101110000011111010100000011110000100110000110001000010110110100010111000100000111001, 
111111111110111011000101001111110100110110101111011011111011110000100110110101110000000111111100101110011001000100010000110100,
000000110111101011111000000110101011000110100110000111111010011110101011000100101111010001111110001111100001111101100001001011,
000101000000011100111001010111001001000011100111111000111101100000001110110010000000011000111110100110100110110111110000010111,
000101001000010101110100011110100011111101101000001101000111001111111001111111111111100001000000010110111000111011100111010000, 
001001001000011100111110101110110001111110001000010110000000011111110111000010111111001001111000111000001100000001111000011110,
111010101110111101111101111110101000000010110110100011111100100111110000000011000110101101110101000111110001000000111111100101,
111111111101010001111111110000110111110011000110100000111110011000011101111101110111111100110001100111010001000111110111110010,
111111100000100010111000000000101010000001001111111111000101000111000000111001001000100100000101110111001111000001101000011011, 
111101110111011100000001110000100010111001110000011011110111000000011000111101111110111011000000100000000011111110111110111001,
111100010111110111000010001000100110000001101110111001111001010111010111111111001110100001111010000000001110000001111111011101,
110101000000010100111110010000000101000010110000011101000110100000010011111111101111100000000101111000001010111100110111001010,
110100110000000101111000101000010011111011010000101000000000101110011010111110110110110010110110111111100101111101000111101110,
111111001111110001000100101101111001111001101111001101111100101000000001000111111000000000001000010111101011111000111111100101, 
000000010000100001000001010110110001000110101111100001000111111000001110111111011000001000000000000111000001000010111111101111,
000000100000011011111101001110001100000001001000010111000011101000010001000000000111001110000000100111010110000101101000011101,
111000001000010001000000011000001011111110111000010111111100100111100000000000000001111000111000100000001100000010111110101010, 
111100110000100010111100010000001110111111010000010110111110001000101000111111111000001111000100010001001011000011001000010111,
000000000110111000000010001110111110110100001111101100111011100111110001000000000111101111000001101000110100111001111111100000,
110111100111110100111100001000000000000110101000011011111010000111110101111100010111100110111010000000011010111100100110110011,
000110100111100101000000100000000001111000100111101110000001101110100110000111101111111101111000100000000111111010011111001111, 
000000101000110000111010100000011000111011010000010111111001010000111100110101011000000000000001001111100011000101001000101100,
111111111001001110000010010000001001000101110000010111000010000111111100000101011000111100110101010111101001111010011110010101,
000000010001000101000101101111001100000110011110011111001010101111110100110111101111010100000001111000010110110100001111011001,
111100010111111011111110110000100100111110001000001110110111100111110010111001000111100011111111001111101100000000110111110101, 
000000001000010001000011101000100101110111001111100100110111111111110101000001001111001100000001011000010100111001000111111001,
000011110110101001000100001110011011111010100111110101110110111111010010000110100111101101111101001000100111001000000000110000,
111011101111001110111011000111010111111100100000110011111111001001100110000010010000100111000010001110011010000111101000010101,
111101010110111011111010110111110011000001011111010011000000000000000110000010111110010001111101011000111100000011101000101100, 
111000100111111000110110011000010101111110100111001110111110011000011000000001100110010111000100000000101000000000000111101000,
000100011111110010000001011111110111111001100111110011000100011111111000110011000111111001000011100000001010111011111000100010,
000001111000110100111100101001000001110111001000010110111000010110110110000010111111110001000100010111101000111100111111101001,
111110110111011101000011001000010100000000100000111101110001101000001101000000110110101111111000010000100101000100100111110111,
110111010111010010000010101000000111111010000111010001000010101111100101000101100111101100110111010000000111110100101001101000, 
001000011111111010000100110110101010111111111111101111000100110111110010111000110000111010111011001111101011111111100001010010,
000011110111100011000110110111000101111010000111011001111100111000010000111111111111101111000011100110101111000000000000011010,
111100010110110110000101001000001011111010100000000100111101110111101000111111111000111100111110001000000110000011101111011010,
000010011111100001111111001000100111000110011111000000111001011111101010111111111110110011000100100000001011000100110110011111,
110111101111110100110111010001000011110111000000100101000000000000001000111111001000011101000010101000001100110010110111101100, 
001000101111110010110111011111110100000000001111011101111101011111111100110000100000011110111111101000010001110101110111001010,
000001010111101000111011000111110000111110000000100110000011010000100110111100110111100101111101111111011101000010101000011101,
111000111100001010111110011000000000111100010000001011000010011111111100000010011111011000001000101000100010110101111000011001,
111101110000000000111011000110000111110001010111110000111111110000110100111000001000110111001000000000000101110101010000010001,
000101000111000011000011011000010010000011000110011101111110011111000110001001010111110010000100001111101110000111011000010110, 
000010010111110011111110001000001110111110100111101010111100000111111001000000000000000101000000010110011100111110000111000010,
001000000111101111110100101111000011000001010000011101110000100000000000111000011000111111111011001000010011110110000101110100,
111111110110110101110011110000010001111111010111101001000001010000011001000011011111011100110010010111111110000001010000011100,
111101110110111001111111000111100010001001001001001111111001011111101011111100010000001110111010100111011111000100101110101110, 
111011110000010100000001110000100100000100101111101101111111000000001000111110011111111001000000001111001100000001111110110100,
000000011000010011000100000000111100111110100111111001000100000111110010111111110111101100000011011111110111111111111000001000,
000101100000111010111000111111010100110100001000000100000000011000111111111101010111111001000001100111011111111110111000001101,
111101110111010101001000100000000000111110011000100001000000101111100110000011110111110110111011111110100100000001110111000101, 
111000110111100100111000111111001110111011010111111111110100000111111111000101010000000010000010100000000110101110010110110101,
111111110111000111111101100111110100110110000111100111000001000000100011000001001111011110111000000000011000000010010000011000,
111111101000010000111111110000000111111110010111001011111110110000010100111100110111000001111101101000100111111110011000000111,
000010100110111000000100110111101110000001001111100110000011011110111110000101011110111010111100100000010100000000111000001100, 
000011010001001111001001110000000100111101000111101110000101000000101000111101111000011110000100111110111110000101101111100000;