memory_initialization_radix=2;
memory_initialization_vector=
110101110000110111000001011000001000111111100000001110000011110000001101111101001000100000000000000110111101111111000001000100110101011111111110000000111000100110111110011111100011111110110000001001111010010111110100000100101,
110111001001000110111111110000010010000010110000001110111101010111110101111111010000010001000100100111010011000010010000100000000000010000100101000001100000111110000000010111110000000001101000000100000001001111111101000101110, 
000011000000001100110111011000000110111101001111110101000001101111101110000100100000011000000000000000001110000011101000001100000101000111011100000001110111110001111101111110101111111110101000001111000001011111101111111100101,
000000000000000111111101011000001100000010010111110111000001101111110011000001001111111010000001001111101011111110101000000001111110111000000100000000111111111101111110100111111110000001110111101110111101101000001010111111111,
111011100000100011111110011111110001111111100000010111000001111111101111111110010111110111111010000111000000000110011000011011111111011111110100000001100000111001000001100111011111000000101000010111111011001111110001110110011, 
111011101000000010000001100000010010000001001000100000000100101111101111000010111000010011111100011111000000000001011000000001000100111000000101000001000000111001111111010111100101000001000000000101110110001000001101111100000,
111101111000000100000000101111101110111111000111101110000000000000010010111110001111111001111111000111101101000001100000001110111101110111110101000001101000001111000000111000001110000001110000001011000000101000000001111110010,
111011100000101000000100111000010000111111100111101000111010100000001011110100100000000000000010110111010100111110001111110011110100010111101010111110011000010011000001100001001110111101010000001000110010001111110110000100111, 
111101110001001110000000001000001100111111000000000000111101101111110000111001100000010001001010010000001010000000010000000000111101111111100010000000001000100111111110010000010010111110101000000100000011111000000111000111010,
111111000111110100101111011000010000111111110111011011111001010000001010111110010000100011000010011000111101111010010111100111111011010111000101111110110101111010111110101000110010000001000111101011111101000111110011000010110,
111001100000000001111100001000000000111111010110111111111001100000010010111100100000100011000011110111111000111010000000001001111110001000001001000001010110111101000000101110111001111110101000000101000010110111110101111111000, 
110111101111101001001001111000000100111111100000010101001001100111110101111110001000010111111111001101100100001000000000011010111111001001010010000001110001100100111111010000001001000001110000000011000000101000001011000011101,
000101010000110100000010101000000100111111000000001000000000001111101111000010000111101011000111011111111100000100101000010000000000100000111111111111100000010100000001111000100000000001111000000100000000100000000011001000010,
000000100000011011000000000000000101000001010000110011000011110000010001000101110000010101001000101111110101111110001000100001000010110000000111111110001111010101000000000111110100000000111000001000000000101111111100000100011, 
111101001111110100000101100111110000111101011000100000111100100000010010000101001000011010111111100101011010001011100000101001000000000000111011000000111001101010111110111111101100111111101000001101111100110000000001000100011,
000001011000110011111111101000001011111111100110001000110110010000000100111000000111100110111110010000100110111111100000001101110101110111011101111111001111100111111110110111100110000001001000000000111111001000001010111011010,
000100111111111101000000100000001000000000000000011000111101100000000101111111111000010000000011101000001000111000011111111001000000110000001111000000110111001011000011001000011011000000001000001001111100111000000001000100110, 
111110101000000000111110100000001000000000000111110010111110101111111011000000101000000110000000011000001010111111101000001101111110110000001101000010001111110101000010010000000110000001000111110010111110100000000000111110010,
111101101000000000111101110111101111000000101111110100111110100111111111000001000111110010111111000000000101111111011111110001111101001111110101111111001111111110000001011111110111000001111111110000000001000111111011000000000,
111110010000001100000000011000001110111110110000000100000000000000001100111111010111100110111111010111101001000001000111110001000000000111101111111110101000000100111101101111101110111111010000000100111111110111110111111101101, 
111111001111110100000100010000001000000001011001111111001010001111110100000011000000000111111101010000001110111011011111101110001011011111100000111111001111111110111110010001110011000010001000000110111110001111111010000001011,
111111000000010001000010110111101111000010001110101010110011011000000010111101001000010001111101000110111101000101010111100010110011000000110101111101111001000101111101100000110011111110010111111101110110111000010000111111101,
111111110000001100000001001111111010111110101111111110000000111111101111000000011000000011111110000111110010111110011111111110000001011111111010111110010000000111111110001000001011111101111111101110111101110000000010111111000, 
000011111111100101111010110111111111000000000000100011111101001111111100000011011000010111000110011000011001111011000111100110111110010000000000111101110111101100000000001111101101000010111000010011000000001111111000000101010,
111101011111100011000100101000001101000010001000001100000100010111110000000001110111110000000001001000110001111101010111101111000001110000110111000001000000100111111111100000001010111110100000000001000011111000010010111111000,
111110111110110110000111010000000111000011000000010100000001110000001011111010111000010111000001101111111000000100111000111100000011011111111101111111110000001010000000101111011110111110010111111101000100111000000000000010101, 
111111101111111110111111111000000100111110111000000001111110100111110100111101111111111000111110011000000110111101011000000100111110001111111110111101110111111110000001111000001111111111100000001011111100101000001001111110110,
001001011111100001111111000000000111000000010111010011110111111000001010110011011111101011000000110001000001111100111111101111111011010111011001111110110111110100000001000000110000111111011111110111111110101000000111111100111,
000001001111111010000101110111111100000001011001000011001000011000001101111111010000000111111100010111001010000001101111100101000110000000000111111110000000011100000000000000111110000000110111100110111100101000000000000100001, 
000010000111011110000101001000000000111110000001000110000011010000000000111110010111000110111101000111101100000010100000000011000101111111001101000000001000001110000000100000011111111111101111110000101101011111110011111010000,
111111111111110011000011101111110110111110001111011000000000001111111010111101010111110100111111010000000001111110001111100111000000000111000011111110111000100000000000100000101100111111000000000000111101100111110110000010100,
111101111000000010000001000000000011111111111111111000111101111111110011111111010111111011000001001111110101000001011000000101111101101111110001111110010111111011111110000111110001111110110000000011000000000111110000111111100, 
001000001000010010110011001111110111000001111111011001111100011111111101000100101000001100000010001000010110111100001111111101111101010110101111000010011110101001111110101111100110111110111111111000000011000111111000111110001,
000001010111010110111100001000001011111110001111101111110110001111110011000010000000001111000101000000001011111011100111000001111110110111111011111110101111001111000000111111100010000001010111111111000000110000001010000001110,
111001001000011001111011111000001110111111010000100001111111000000010000111001011000110001000110110111011111111011110111000000110101111111000011111110010000110000111111000001000110000000000111111010110011100111110011000001001, 
110000101000010101111101101000000010000000110000000001000010000000000001000001010111110101111100101111001011000000110000000011111001010111111011000001001000001101000001010111100011111110001111111110111010101000000111000001110,
111100011111111010000010110111111011111111001111101100111101010000000000110101011111100011111011000110101010000100011000010001111010000111100110111110000000000010111111110111110001000010000111111001111100001000000111111100011,
111110101000101001000000101000000000000011010000100111000101000000000111111101011000001110000010110000001001000100000000010100111111110001000110111101110000111000000001110000001011000000001111111101000000000111111110111110111, 
111111100000010010000000100000001111000001001111111001000000001111110011111101001111110101111111111000000100111110001000001011000000110111101010111101110111110101000000000000000010111110011111111011111111111000010010111110011,
111110000111111100000000111111110000111111000111101101111110100000001001111101110000001011000000101111110000111110101000001010111110010111101010111111011111111111000001001111111110111101111111110011111111111111110010111110100,
111111110111101111000010101000010010111110000000000000110111100000000101111111100000001100000010101000000000111010111111001111000000100000000100111110111000001100111110011111100011111110100111111001111110001000010000111111101, 
111100111111101101001010001111111011111101101000011110111010111000000001000011101111110010110111100111010000000101110000100100000010100001001110000000001000111011000001011111111111000001110000001000111111100000001111111001110,
000000001000001001111111000111110100000001001111110111000000110111110111000000010111101110111111011111110011111101001111111110000000000111111000000000101000001100111101110000000101000000000000000100111111001000000011000001100,
000000001111111001111111001000000000111111111000001000111110111111101110000000010111111110111101101000000001111101001111110100111101100111101111111110100000000010000001111111110111111110100111110100111111110000010011111110011, 
111110001000010001111101100000000100111111101000001011000000000111110010000001111111111010111110000000000011111101001000000000111110100111110010111101110111110000111111100111110101000001100000010001111111000111110111111101110,
111111000111001000000100110000010010000000111000111010000101010000000011111110110111101001111101110111101000000101001111100110000010100111100101111111010000101100000001100000001011111110001000000001111011011111111101111111000,
111000001110110011000100110000010000000010100111010111110011011000001101111110011000000010111100111110011011000110000000011000000011110000000010000000001111110010000000100111001111111110101000010101000000101111110000111000111, 
111111111000000001111101111000001000111111111000000110111011101000000100111111001111110110000001000110010100111110000000000010111111000111001010111110001111010001000000110110110111000001110111110111000010010111111001000001000,
111101011000000010111101011111110100000010001111110101111110001000001110111111010111111010000001110000001100111101110000000100000001100000000101000001010111110001111110000111110111000001101111110010111101101000001000000000111,
111100110000001111111100110111101110111110110000000010111111010111101110000000110111111101111001101111000101000001101111111100000001101111100010000010001000011011111110101111110111111111111111101010000000110111110111111111001, 
000000110111001011000000111000001010111110101111000011111111100000001000111110101111101111111100101000010011000001011000000000000101110110110111111111100111011000111110001000000001111110000000001010000011001000000000111001000,
000010011111100000000011101111111001111111010111101010000000101111110000110011011111101111111111110111010011000011011000100000111110001111100100111111010111111101111110100111100100111111111111111110000100000000001100000011011,
111111110111100111111100110111101111000010001000000000111101111111111011111110111000001000000110101000000000111011100111101000000010101000010111000000001111101100111111010000100010000000101111111100000001000000001101000011100,
111001001000010000000101101111110111111111000111101010111011100000000000000001010000101100000011101110010001000100111000001110111010111001101010111110011001110111111100101111110111000001110000010111110010101000010001000000000, 
111101110111111100111111011111110100111110010111101110000001110111111111000001010000001100111110100111110111111111001111111011111101011000000000111110001000001010111101101111111110111110100000000000111110110111110001111110010,
110111010000100101000010010111111111111110100000000111111111111000010010111110000111111011000000000111101000000101000000010011000010011001001001111111000111100111111110011111011111111101111000000010111111011000001101000001101,
111101011111101011111111001000000100000000010111110000111101100000001000000000001111110001000000001111111111000000101111101000111101011000000000111110111000000111111111001000001111111101110111101111111111010111110010000001001, 
000100000000110110000000101111110001111111001111101111111110000111110101000000101000010110000010011000000000000011001000101101111010011000100000000000100111011111000000100111110001000001010111111010000011011111111011111010000,
000001010111100111000000100000001100111111011111010001110100000111110011000010001111011111001000110000011011111110011110111011000000100000110001000000110111110011000001001000000100111110001000000000000011011111101111001001110,
111100101000000100000000011111111010111110110000100011111110010111111010000011111111111011000000011000011111000000101111110000000011111000001100000000011000011111000000100000011100000000100000001100111100111111111011111100101, 
111101101111111111111110100111110000111110100111101101000001000000001010000000110111110011111111011111110100000001100111110110111111011111111101111110010111111101000000000000000001000001000111110000111110011000001010000000010,
000100010111011000000101110111110111111110101111111110000000000000000100110111001111011110000001111111100110001000110001001100111111010111111011111110010000000000000001100000100010000001010000001000000111010111101110000101111, 
000101000111000011000011001111101110111111000000001011111110100111110101000001110000001110111111011000010011111001100111011011111111110111001111111111001111101010000010101110111011111111110111111001111111011000000111000001111,
110111111000000001111101001111101110000000000001100000000100010111110001111011010000101011111000011111100001111111010111101011000111010000000111000000011000011011000010011000101100000000010000000100111100111111101110000000111,
000110010000011010111110101111111011000001101111110111111110110000010011111110111111101110111011001111111110000011000000001010000100000111101000000001011111010101000000101000011011000010000000001010000000000000010000111001011, 
000111111111100100111111000000000000111111011111110000000000000000010001000100100111111001101111101000110000111010111111110110111011110110010111000000001111100110000010101000011110000000101111111110111110101000000011111100000,
000010010111100011000011110111110000111110110000001000000100100111110111111100001000001010000000011111011011111101101111100101111110101111111101000000100111010110111110010000001001000000101000010010111101001000000111000100000,
111110100111111101000000110000000011111110000000001011111110111111111000111110101111111011000000110000000011111111101000000000111111110111111011000000011111110101111110000000000001111111010000000010000000011000010001000000000, 
000000111111010101111111000111101111000000100000010001111111010000010010110001001000010010000011011001000100000000011111110111110001011000000100000010010000000011000001001000100000111111011111111000000000000111101111000101011,
000001100111101111000001011000010000000001010000000000000000000000001100111110111111111001111110111111111111111110010111110011111111011000000000111111100111111110111110100000001010000001000111111111000000111111110110000001001,
111100100111010111000010000111111110111110000111010111110101110000001100111101101111110111111110100000010111111011011111000110111111111111101001111111100111111001000000011111000011000001111000010110111110101000000101000000010, 
000101001000001100111000101000000000111111100110101101110001100111110101111111010000000000001011100000101001111011000111011101111101011111111110111110000111100100111111011000101010000001010000000000000010110000000011001000010,
000000010000101100110111110111110001000000100001001001111110010000001000000101110000001001000011110000110100111100000111110000000010010110110100111101110111010010000001011111011011000001010111110111000000010111111000000010001,
111111010111011010111100100000001101111111000111001001111000010000001101001000000111111000111101001111111101111110011111011101111110111111110100111111110111111101000000010000000000111111100000000001000011011000001100000100100, 
000000111111011110111001111000000100000010001001000001000111000111110000111010110111110000000001110001000101111101111000101101000111011111000110000000011110001111000001110000010100000001010111100111000001100000001010000101011,
110101101000001100111010011000001010000001100000001100000000000000000000111100101000111010000010001111101111111100001000100011000110101000011111111110010111010100111110011111110101111101111000000101000000000111110000000001101,
000100001000000010000101010111111100000000000111111010000010100000010001111001100111111001000011100111001110000001111000001011000000010000001101000000011000000110111111000000100001000000010000001101111010010000000001111010110, 
111110011111000101111110011000001111000000101000101101001000001111111000000010111000001001000010011111001111000010110000000011001000110111100010000001001000110000111111010000101110000000101000000001111010100000001000111101100,
110101011001011011000001110000010001111111010111010100111010101111110011110010111000010011000101100111000011000101100000001101110110010001000010111111001000001001111111111111001101111111101000000000111010011000000001000001000,
111111000001000100000100001000010010111111111000000100000011010000010000111011100000011100001000110111010011000000110000001001111100011000001011000001100000111000000001101000000111000000101000001111111110001000001010001001011, 
000110000111010100000100111111111010111110111111010111111010011000001000000111111111111100111100110111110011000110110000011000000100100000110010111111110000011110111111010111000100111101011111111110000100111111110010111010110,
000000000000000010110110100000001101000010011111011110111111001000000010111011000111101101000010110111110001111111000111101110000100010111100100111111010000010000000000001111101011111101110000000100000000010111111010111011010, 
000010110000010111000010100111111111000001101110001110110110100000001000000010111111101011000100010001010010000000010111111111111101101111001100111110000111111110000001110000100100111101110111111111111100101111110110111010100,
111111101111101001111010011000000011000010000000101000000100101000001001000001000111111111000000111111101111000100111000000110000110010111110010000001010111100010000000000110100110000001101000000000111111001000000101111110101,
111111110000000100111101101000001000000000001111101100000000100111110110111110110000000101000001001000000011111111001111110110111111010000001001111110101111111011000000110000010011000000011000010001000001011000001110111101001, 
111101100000010111000001000000000111000000001000011111111100001000000100111110010000011000000110111111000011000011000000100100111111101000011001000010001000111100000001110111100010111110101000001111111111000000010001000011011,
000001011000110100111100101000001101111111101000010100000110111111110011111100011000011110000100001111000010000001101000001011000011001000010010000001011000001110111111100111100000000001100111110110000000101000000001000010111,
000010011000010100111101110111111110000000101111101011110111111000010010001001001000000001000001101000010010111101110111010101000001101110100101000001010000011000111101101000100011000001010000001000111001001000000110000000111, 
000001101000101100000000000000000100111111111000001100000100001000000011111010101111101111000011101111011000000000110001000111000011100000110100111111110000000001111111111000010101111111011000000000111111111111111001000010000,
000010010111111001000110010111111010000000000111110110000001111111111100110011001111101110000001001111011110000010110000011110111111111000000111000001000111110111000001110111110101111111100000000110111111011111110000000000110,
000001000111100010111000000111101110000010010111101000000001001000001011111111010111111011111011111111101010111101100111101000111100110110111000000001100110010110000000000111110011000001110111111110111111011000001111000011001, 
111011011111110111111010011000001011000001010111101110000011010111111010000000010000011110000110111111000110111111110111111000111101100111100101111110000000010111000000011000000110111110100000000111111111100111111010000010011,
000011111001000100001001110111111111000001110110011001111101100000000010000001011111100001110110101000000011000001001000010100111100101111011010000010000000110010111110100111111000000001000111110111111010110000000011111010111,
111101111000000000000010000000001100111101111111111100000010000000000000111101110111101110111111101000000011111110011000001110111110110111110100111110110111110001111101111111111111000001111111111110111101101111110110000001100,
111011111000001011111110000111110001000000110001000101000001000111111100111000000000100100110110100111111001000001101000010111111110010000010001000001000000000111111110110111011011000000011000011100000010111000001000111101001, 
111101111000000100000010011000000111000001110000010001000010100000001100111100111000011011110011001111101110000000000111100011111110001000010000000001001000011100000001001000111001111110001000010110000001001000001101111101110,
000000101000001111111110101000001001111111101111110100111111100000001100000001001000000000111110000000000001000000000111110000111110000111111111111111001111111010000001101111110101000000010000000111111110001000000111000001100, 
111110111000100010000010010111111110000000000000010101111100100000001100111011110111110010000110100000011011111110101111100100111111101000010011000000010000001011000000010001101011111111110000000000000011001000010000000010101,
110011101000011100000001011111110000000001011111011100000001101111110100111110100000011101111111100000000000111111011111011101000111100000010001111110100000011000000010000000011100000001111111111101111101001111110010111111101,
000010110111110110111011001111110001111111000111101101111111000111110100000111011111001010000010100000000000111111001000101000000000000111110010000000000110101101000001011110101111000000000000001000111100111000010000000010010, 
000000100111001101000010011000001011000000010111001110111100011000000000000011100000000000000011001111111011111010111111111101000101111000011101000001010110110101111110010110111111111110111111111010001010110111111111111110101,
111100101111110101111110010111111011111101111111100011110101000111110110111010110000111111000000011000001100111011010111100010110101010000001111111110101000000001000000001000011111000001101000001010000000110111110100111011111,
000001100000100111111110001111111100000001100111010001111011101111111100111110010000000111000001111111110011111111011000001111111001000000000001000000111000100110111111101000100000111111100000011000111110110111111111000011010, 
000011000000100101111110100111111110111111011111101101111101110000000110111110010000000001000100010111011000111100110111011101111011101111110101000001110111101110000000000110100000111111101111101111110110011000000101000000101,
111101000111100110000101001000001110111101110111110100111100010000010010111011001000110100000010010000000110111011111111011001111011011000011111111101111000100010111110101000011000111101111000010011000011001111110101111001110,
000000010000011000000010010000010000111110101111111100111110101000000010111110100000000111000000111111111100000001010000110110000001010000100011000000001111111011111111100000100111111110111111110101111110010000000010000000100, 
000000100000100010111101110111111110111110100111110111111111110111110101111100101111100010000010111000000000110110001110111000111111111000010001000000010111011101111110001111100001111101111000000011111110001111101110000000111,
111110010111110111000000000000000010111101110111111101111101110111110001111101110111111010111101101111110001000001101000001000000000110000001010000000110000001100111110111111110011111110011111111010000000100000000101000000100,
111101101111101110111100111111110010000000101000000011000001010111110111000001001000010000111111110000000100000001001000000100111111000000001000000001101000000011000001111111111010111110110000010000111110101111110100000000001, 
111101111111111100111110111111110011111111000000000100000000011111111100000000011111101001000000010000000001111111000111110111111111011111101110111111001111111010111110011000000011111111001000001111000000000111111100000000011,
000010101111101011000000100111110011000000111000000010111111110111110110000011000000011001111100011000001100111110000000001011000001101111110100111111010000000101000000000110111111111110101111111011111011100000001011000010001,
000000001000110101000000110000001100111110111000010101111011010000000000111101000000100100000111000000000110111101010111001011111001000000000001000000010000100011000000100000100111000010001111111100000011010000001110000001011,
111111010000001001111101101000010001000001100000000101000000100000001100111111010111111011111101101111101000111110010111111011000000111111111100111110010000001110111111111000000001000000100111110000000001010000000010000000000, 
000100100111111010000011000111110010111110101111101000111111001000000001000011101000001001000100000111101111111111000111001010111011101000100110111110111111111001111110110111100111111111010111111111111101011111111110000010111,
000010110111101110000001000000000010000001001111111000111100010000001011000010001111100101001101011000011110000001000111110000000000111000000000111111101000010011000000000110011011111111110000001001111100001000000100000001100,
000010000111101011111111110111101101111111101000000100111110000000000010111101000000000100000111011000000100111111101111111100111110100000000011111110010000010100111110111111001011000001000000010000000011000111111111000110011, 
000001011000000001111111110111110111111101110111111100111111000111111000000001110111111000000000100111110000111101101111111011111110000111101110111101110000001100111110100111111000111111000111110011000000011111110011111110000,
000010001000110110101110010111110010000000010000000101111100111000000110000010110000000000111110101111111101111100111000100111111111000111000110111111001110100111111101100111100110111111001111111011111010010111111010000010000, 
000011001000000011000010101000000011000000011000101111000100011000001000000001101000000001111100001000001011111111101111111100000000000000011111111110110111111101111101101000011011000010000111101001000000010111111101111110011,
000001100111010101001000010000000001000000111000110011000100010111111000111100011111001011111110111000011100000011110000010011000001011111000110111110001000101101111111100111010110000010011111111000111100000000001100000011000,
111100011111110111000011110000001011111101011111011100111110000111110011000000001101111011111100010000011000000011010000010010000110100000001001000010010000011101000001001110011001111111010000000111111100001000000101111010110,
000000000000010000111101100000010000000001011000000010000000011111110111000001000111101011111101111111110010000000101111111100000000100000000111111111100111101100000000110111101110111110001111101011111111000111111111111111110, 
000010111000100011000000011111110010111110000111011011111101100000000000000000110111010110111101101000000100111101110000100001111100111110011111111111100000010000111111011000000011000000000111110110111100110000000000000000010,
000001001111111010000010000111111100111101110000000110111101100111111001000101001111101001000100111111111110111101001110111010111110110000000000000000100111011101000001001000000101000000010000011011000000011000000010000010011,
000010101000001111000001110111110010111101010111110001111101110000000101000110110111100010111011000000001110111101001000000000111010110000001011111111101111011110000001011001001001000001111111110001000100001000001000111111101, 
000001101111011101111111100000001101000001111111101010111110000000001111111110100000000110111111001111110110111111111111111111111101110111101010111110101111111101111111010111000100111110010111111100111001101000001011111101100,
111101001000010111000010010111101110111101111000000010111111001000001111110111111000001000000000000000000000000010000000100111111110011111101001000000011000010111000000100111100011000000101111110111000011000000001100000000110, 
111010100111110000111111111111101110000000100000000101000000101000000111111000111001000010111010101111110110111101101111111010000010001000010111000000011000001101000010101000000101000000000111111000111111111111111010111100111,
111101110000001100111110000111101101111111000111111010111111101000000000111110000111111100111110110111111110111111100000001001111111101111101110000001110111101100000000100000001000000001111000000110000001000111101111111101011,
111111100111111110111110110000001110000001100111110100111110111111111101111101111111111010111101001111101000000000110000001101111110101111110101000000110111110111111111000111111001000000011000010010111111110000001100111101101,
000000000000011101111101110000001100000000001000010111000001001000000000111110011000101001000110110000011011110111101110110111111111101000001011111101110111011110111110011111100011000001101000000010000101010000000011111110001, 
111001100000000111000100000111111111000001000000010111111101011000001011110101011000000001000100100111100000000010110000001001111111011000101010111110100000011010000000100000000111111110100000010010111100010000001011000000011,
111111111111111111111110111111110000111111010111110000111110101000001110000001011111111000111110001111101110111111011111111100111111101000000111111110101000000011000001111111111011000000001000000000111101100000010001000000100,
000000100000000000111101000000010010111111001111111100111100111000000001111111001000001010111111111000000001111110110111110110111111111000000111000000110111110110000010001111110011000000010000001101111110101000001100111101100, 
111101101111110010111101110111110111000000011000000111000001000000001011111110001000001111000001010111111101111111010000000111111110001000000100111111101111101000111110101000000110000010000111111110000000000111110111111111101,
111100101111100101000001011000000100000010000000100010000010010111111101111000010111100010111010011000010100000010100000011101111111100111101011000000111111010111000000101110000001000000100111111010111100101000001100000000101,
110111110111110111000110011111110101000001000111110001111100100000000111111110000111111100111001110111110110000001100111111011000000000000000101000010010000111101000000010111110111111101111000001100111111011000001100111011010, 
000001100000101000111111000000001010111101110111001010111101110111101110000011011111111110111111010111010011000000000000100001111000011000000000111111000000011011111110011111001011111101111111110111111000111000001011000000000,
111101011111110101000001100000000110000000100000000111111101110111111100111110011000000000000000000111110010000000100111111000111101110111110100111110101000000000111111100111111000000001001000000111000000000111110100000001010,
111111010111110111111101101111111011111110000000001111111100110000000110111110100000100111110101111111111000111101101000000011000011001111100011000001000111100100000001100110111010000000001000000110111100110000001001111101011, 
000100110001110011001000000000000010000001000111011100000001001111110111111110110111011110111001011000010011000010000000010001000101100000000001000000110000001101111110000000000000000010001000000101000001010000000101111010110,
000001100111101111000010101000000010000001111000011000111100000000010010111001000111110000000010000000001111000001001111101001111100100000011011000010001111101001000001110000010000000001110111110101000011010111110111000100001,
111101011000101111000001011000000111111111001111100000000000100000000010000101000111000110000100101111111100111010101111010001111110000111111000111111011000001011000001001000100010000000001000010001000000001000000001000010001, 
111100100111101001000001010111111000111110000111011100000001111000000000111011001000001001000011010111110010111101110111100111111001000111110100000010010000010001000000100111101011111111011000000010111111000111110111111100110,
111111010111101110111110110111110001111111001000000011111110100000000111000000101111111101111110111111111011111110111000001101000000000000001110111110110000000000111110001111110111000010000000000000000010001000001100000001010,
111011111111000001111101101111111001111111010000000000111000101111110010110111101111110011001010100111010111111111100111111011000001011111100100111110111000000001111111110111011111111111011111111100110101011000001011000000110, 
111101111111110100111110000000000110000001001111111111000000100111111010111110010111111001000000111000001110111101011111111110000001011111110110111110000111110001111111111000001000111111011000000001111101011111110111111110010,
111101111110100001000000010111110100000000000111001010111010000111110110111100110000110101111001011111100111111100110111111101111110011111110110111111011000001000000010000111000111111111010000000011111110010111111100111110011,
111110101000011000111101110111111000111111000111101000111001101000000100111110101000011110000110000111110100111100001111011101111111100111100111000000010111111010000001011111010100111111110111111010111111100000001010000010001, 
000001100111100110000011010111110101000010000000100011111100100000010000000000010000001001000000110000000000000001110000000100000001111111101110000010000000111100111101110000000111000010000111110001000001111111111000000001101,
111111111111110010000001110111111100000010001000001000111101110000001011111110100000000100111111100111110100000001110111101111111111010000001000000000111111110100111110100000000000111110001000010010111111011111111110000001011,
111111010111111100000000010000000011111110001000001000111101010111101110111001100111011001000011001000000000000000000000000101111101010000000100111110000000000001111110101111101010111101101000000010000011010111110001000100011, 
000001110000000111000000101000000000000001100111101111111111101111101111000000000000110100000010110000000111111010111111000001111101000000011000111110000111101011111111110111001001000000100000000001111111101000000111000011010,
000010111000010000000001101111111100000000001000010000000100011000000110111111100000010101110110101000000101000001000111110100111111001000011101111111101111111100111111010000101110111111011111111011000001111000001111111111011,
000100001111111111000110001111111001111110001111000000000001010000001001000100001111110110110110011111111100000000011000000100000101100000000000111111111001001110111110110111100110111111110000000011111111011111110001110010000, 
000010011111101111000010001000001011000001100111111000000001010000000010000011010111011100111110010000010001000010011000001001000011000000110000111110001111101000000001100000001011111111000111111100000011110000001000111100010,
000010011000001000000100110000001001000000111111101110000001011000000101000000110111000101000010110000001101111111010000010000000000000000010010111111010111111111111101110000010011111101110111110001111011001000001110000000101, 
111101010000001000111110011000000000000000001111110011000000111111110101000000011111111111000001100111101011111101110000001001000001100111111100000001010111111100111110001000000010111111011111110010111111100111111001000000101,
000100100000111111110111011000001011000000100111101010111001101111110111000010110111110010111100011111111001111010011000001000111011011111010101111111001110111101000000001111111111111110110111110011111011001000010000000000100,
111111101111110000000001001111110100111101110111101011111101011000000100000001001111101010000001010111101100000001100111110100111111001000001001111110111111111111111111001111110011000000011111111101111101101000000110111111010, 
111110110111111010111110110000001100111101100111111100111110011111111111000000000000010011000001010000010100111001001110111111000010111000011001000000101111010100000001111000000100111110101111101111000001010111111001000101001,
000000111000010110111111010000001000111111101111000011101111111000000101000011111000000011000011000111100101111101100000011111111100110111110111000001010000000001000000000111111010111110111000010100111101111000001001000010000,
000000011111010101111110011111110010000000010000000100000000001000000000000100110000000000000011011111101011000001111111111001111111010111010101000001100000001101111111110110101110111110001000010010111110100000000101001000110, 
111101111000110100000000101000000011111110001000010000111011001000001000111111000000010010000001100000000000000001111111111110111010111110011010000001111111011100000000111111111101000010000111110101000000110111101101111101000,
111100001111111001000000010111111001000001110111011100000101011000001001111110101000010000111101010111111000000011111001001000111110010000000001000001011111000100000000101000001001111111111111110000111111001111111101000100000, 
111111011111101001111101101111111001000001100000000100111101100000001011111111011000001111000000001111111111111110011111100000111011110000011011111111001111100101000001110111110010111110010000001010111001000111110110000010110, 
111111010111010101000011010111111001000010010111101000111001110000010000000010011111000110001100001000000001111110101111110001111100110111100111111111001111111010000000000111110110111110101000001001000011000111111001000001001, 
111110100111101011000010111000001110000000011111111010111110111000001000111100011000011010110111110111110001000011010111111100111100110111100111111110100000011011111111100110010110111111001000000000111111110000000000111110101,
111011100000010110000000011000000000111110001000011011111110100111111100111000000000011010111101010000000100111010000111110101111101110111011100111101110000000010000010001000111010000010010000000101111100100000010011111100111,
111010110000001001111101000111111110111111110000010100000010001000000001000001100111110110000101100000001010111100001111011001111100100000000001000001010111110001111111101000011100111111001111110101111101010111110111000100000, 
111010001111011100000011010111110000000001011111101111110111010111111010111110110111011110000000011111100011000100101000011101000101111000100000111110110001000011111111011110011100000000110111111000110101111111111100000000000,
000011010111100110000011001111110101111110010111011011000010100000001010111111101111111111001000110111110011111110111111101100000000101110011111000000001000000010000000000111001001111111111000010101000101011000010000111111110,
000000000000010111111111111000001000111111101110111011111101011111110111111111101000001000111101010000000100000000111000110101000001001111100100111111100000110101000010000111111110111101111111111011110001011111101101111011111, 
111101001111110011000100101000000100111111011000010110000000011000001011111000100111111000111010010111111001000001100000010111111010000111010111000001010000101001000010010110100101000001110000000001111100101000001101111011000,
111111110000000110000000111111101111000010001000000001111101111111101110111111000111111110000000011111110001111111001000001100000000111000000111000001110111111001111101111000000101111101111111101110111111111111111101000000011, 
111011110000000000111111101000000110111110010111000101111011001111111111111110110000011010000000110110110111111101001111101011000000000111011101111110010000011001111110101111100011000010010111111100111011001111111100000001110, 
000000101000010000111101111111111110000000000111101010111011111000000100000001100000100001000101101111110001111111000111110000111100000110100001000001001000001011000000110110111110111110011000000001110111011000001111000001101,
000000000110011111111100101111111011111110001000101011000001100000000000000110000111010000111110011000010101000010001000100010111111000111101010111110000111110100111110101111010101000000111111110111111001001111110100001010111,
000001101000011001111100011111111111000010010000010000111110110000001110111110100111111100000001100000001010000000011000011011111101010111100101111110111001000001111110111000101110111111000111110101111110100000010001111110010, 
111100101000001101111111101111111110000010001111111110111100000111111101111010100111001100000100011111111111000000101111011011111110011000001111111110001000001100111111011101110011000010001000001010000111100000010001000101110,
000011000000100110111100001000000001000010000000100110111001101000001001000000100111101011111010110000010010000000101000000000111101111000011001000000100111110010111111011111010001000001011000000001000000001000000011111100010,
111111100000001101111010011000001010000001000111110100111111001111111011111111111000001001000000110111111001111110011000000101000010110111101010111101110111110010111111011111010110111111001111101110000010110000000000111100001, 
111110110000010100000011000111111010111101111000000001000001111111110100111110111110111011000101111000011111000001000000001110000001000000010011000000010000010001000001010000110101000001011000000101111111011111111110111111110,
000000110000001101000000011111110110000000101111101010111111000111111110111111010111111111111110100000000101111110011111111001111111011000000000111111010111110101111110100000000011000001100000001000000000000000010000111111101,
000011011000000000000010001111111010000001010000010011000001011000001100111100011000010110111101111000101010000100110000101011111111100000010100111110001111100010111110101000101110000001001000000111000011101111101111000001011, 
000001011000001111111110110000010101000010000000001101000001000000000110000011000000001010111110011000101001111101101000011100111111011000011001000001000111110010000001011111110010111111100000000100111110111111101111111101101,
000000111000000100000001101000000000111110010111111100111110111111110011000000010111110110111111110000000101000000111111101110111101011000000111000001010111111010000000001000000101111111010111110010000000101111110101000000101,
000001001000101000111011000111110001000000110111110010000010110000001001000000000000000100111010100000000001111111011000001111111101000000100010111110010000001110111111100001100001000001001000001101000000111000000001000000101, 
111110110000100101110111000000000011111101100111100011111110100111110100111111000000010110111101010111111110111110000111110010000011011111101011000001111111011001111110011111000100111110000000000000000100000111110111111110011,
111110010111001011111010100111110011111111111000011011000110011111111010000000111000000000110010101111111010111100110000000011111101111111111011000010001111110001111110010110101101111111110111110110111100000111111001101100110,
111110000000001010000010110111111110111101101000001101000110000111111110111001100000011100000000111000001000111010100111010101000001100000000101000000011000011000111111000110101110000001110111110101000001010111110101000001100, 
111110110000100000111111111111101110000000001110001111111011010000010001000011110111101111000100110000011011111110011000001010111110000111011100000010010111101010000000101000110111111110001000001011111010100111110010000010110,
111101000001000001000000100111101110000001110111110000110110110000001101000001010000000010000100000000011101000000000000001001111010100111010111000010011111010000000010010111111000000001000111111100111110101111111000000001001,
111111001000001100111011101000000010111111110000001000000000100111111000000000011000110100000000011000100111110110111111111001000001101111110101000000110111100011000000111110101111111110100000001011111110101111110011000000000, 
000000010000110101111111110000000110111111101110111101110110110000001100000010101000010001111110010000001000111110000000001110111111001000010001111110110111101101111110000000001001000000010000000110111110011111110011111100001,
000000000000000011000011010000000000111101001110111011111100011000000101000000101000101101111111011111110100000001010000001101111111110000011000111110110000100001000000000111110111111110000000000110000101111111111110111100010,
111011001000010100111000101000001011000000001000100000111111110111111010000001000000100111111111001000100101110001110110111101000001010000000011111111010111000000000010001111110000111101111000001010000110000111111000000011100, 
111110010000001101000000011000001111000010000000000011000000101000001110111111111111101101000010000111111111000001010111111100000000000111101010111110100111111001111110101000000111111110001000010010111111110000001110111110110,
000001111000000000111101010111110101111111111000000001111110010000010010000001100111111101111111111111111111000000001111111010000000111000000101000000000111110101000010010111101111111111110000001110111101000111110100111101000,
111101111111110110111101010000000000111110001111111001000001101111111111111101101111101110111110100111111110111101000000000100000000000111110110111110011111111100111110100000000100000000000111111100111111010000000001111111100, 
111010011111101111000010110111111110111110111111011001111100111000000110111110101110111110000010110000010100000100100111011101111110001111111100000001111000010011111111010101001010111111000111111101000000000111111010000001110,
000101100000110101000001111000001001000001100111010001111101011111110000111101100000011100000001001111100100111101000000000110111110111111101111111110011000010000111111011111110010000000101111111011111010110000000010000001100,
111110001111111010111111111111101110000000001111110000111101101111111000111110111111101100111101001111111100000001100111111110111111010000001001111111100000001010111110111111111011000000000000001100111111010000000111000000000, 
111101001111100111111111101111111111000000000111110101111011101111110111111111111000100101000010101000000101111000101111000010000000000000001100111111010111011110111110000111010100111110101111111101000010011111111011000100001,
111001011111101011111011100111110110111110101000010000000010010000001100110101101111110010000011100111110001111100010111000111111101001111110011000001100111110000111111111110110001000000110000011011000011011111110010000010111,
111011100000000110000001000000001010111110110000001010000000010111101100111000101111101010000001101111111011111011100111011100111101110000000001111110001111110000000000101111100111111110110000000011000011110000001000000111001, 
111101100111111000111111111000000110000001010111111110000010001111111001111110000000001010000001100111101001111110100111110110111111001111111000000000010000001001000001100000001010000010000111110100111101111000000111111101010,
000001011000001001111011111000000111111111100000001011000011000111110000000000011111110000000101110000000001000000100000010011000010111110110100111111111111100001111111001000011101111111010000000100111010110111110110111110011,
111111101000010000111100100000000110111111110000110110000011011000010000000000000111011011000001111000000110111011100111110000111110001111101011000010001000011100111110101000100101111110001000001101111011101000000000000001010, 
000000100111110100000010110111111001000001100000000110111110101000010010111100110110111111111010100001000001000011000000010100111001101000001001000001010111101011111110111000010010111111000111111110000011000000000100000000000,
110111011111100010111110010111111001111110111000100011000010011000001001110111101111001111000001101110110111111111010111101101111101001000000110111111110111111101000001101110101100000000001111100111111111100000001001000000100,
111101110111111001000001100000000011000000001000000011111111001000000100000010000000000001000000110111101011111101011000000111000001001000001100000001100111111000000000111000000010111111001000000111000000011111110111111111001, 
111111010000010010111011110000001111111101000000100100001000010000000101000000100111010110000100001000001001111101111111111001000001001000001011000010011000101110000001100001000110000001110000011000111100000000000101000000100,
111011110111110101111101110111110101000001011111110000111101100111110010111111010000100111000010001111111100110100101101111001111100010111111011111111111111101100111110001111101100000000101000001000000100010000000010000110111,
000010010000001010000000110111110110111111111111011000111000110111110010000010000111100010111101011000011111000001001000000011000000010000001011111101101111101010000010000000010000111110001111110010111100001111111100000001100, 
000010100000100011111011110111111110000010110000000010111110111000000000000010001111100011111000110000011010000000100000001010111110110111110101111110010000000110000001110111101101000000111000001011000001010111111101000001101,
000101001111101000000100101000000010000001001111101100111001010000000111111101000111011010111110011000001100001010001000110110111010000111110000111110100000100000111101111001100010111111001000010000000011000111110000000000000, 
111101100000101010111110110000000000000010000111001010111100000000001111111101000001000101000001100000011101000100100111110111000000101111111111111111110111101010111101111000100011111110110000001011000110110000010000111110001,
111111000000000010111111001111110110000000100111110100000000010111111100111110000111101001000000110111101011111111001111111011000001110000000101111111010111110111000010000000001100111111010000000000111111111111110010000000011,
111111111000000011000000010111110001000000010000001111111111101111111011111111001111101111111111000000000000111101111111110111000000100111110001111111110111111011000000101000000100000000111111111010111111111000001001111100111, 
000010001000100000111101011000001011111111010111111010000001010111110101000001000000101011111101001000010101110101011111000010000001110111101110000001101111010001111110111111010100000001001111101011000001101000000101000010110,
000000010000011000111011111000000110111111001111100000000000011000010000000000100000100011111101110111101000111111100111110001111110100000010001000000000000001010000000101111111111111110111111111110000001000111111000111110110,
111110010000001000000000101111111111000010010111101100000001100000000000000001111111110010111110001111110001111110111000000001000000010111101110000001100111111000111111000111111111000000100111110110111111101000010001111111110,
111111000000001010111111100111111011111101111000001100000000011000000010000000000000001001000001000111101000111101110000000000000000101000001000111111000111101111000001001111111010111110000000000000000001010111110110111101011, 
000000001000000000111111011111101111111101110111111010111111100000000110111111010111110001111111110000000001000000101000001000111101101111110111000001101000001100111110010000001101000001100000010000111101111000000110000000111,
000001011000010100000100100000001110000010010000100100111101000000010010000100100111001001000000000111110000000011110000011011111011011111111100111110101000001001000000111111000011000000001000000000000110111111110010111110101, 
111110000111111111110111111000000011111101110000101010000011011111110101111100010111011111000001010000000111000001000000000011000000000000001000111111110000110000000001010000000101111101111111110110111110000111110000111111000,
000001100000000001000000101111111110111111011000011011000001001000000010000001101000000011000100111000001010000010110000011011111101010111111110111110000000010010111111110111001111111111101000001000000000100000001101111100010,
111110111111101111111110100000000010000001001111101110000000001111111110000000011111111001000001011111110100000000010000001000111101110000000010000001110000001010111110101111110110111111110000001111111101101111111111111101101, 
000001100000011001000101110000000011111111010000101000000000001000000111000011101111110011000011010000001110000001001000001000000000010111101111000001011000100111111111000111100000000010000111110011111110010111110010111100001,
111101110000010001000000101111110011000001000000010111000010101000001001000000100110010100000010100111111111000000101000001011000001000111111101000000010000001111111110110111010101000000010000001001000001001111110011000010000,
111011100000001000000000001111111010111111011000100001000000100000001010111000101000000010000001100000011101111011011111001111111110110000000011000000001111111011000001001111111000000001100111111110000001100000000110000011001, 
111010010000001000111101100111110110111110101000001000000010010111111010111011111111111010000100001111110100111011010110100111111100001111111110000000101111011101111110001111010010000000110000010010000001100000001110000101100,
111111010111111001000000001111111101111101011111101010111011101111110111000000111000111110111101011111111010000001010111111111000000011000000100000001111111111010111110010000101000111110000000001001111100111111111111111010111,
111111010111110100111101111111111011111111000000000111111110111000001010000000010111110100000000011111111001111111010111110001000001001111110100111110101000000001111110011111111011111110001111111110111101111111111000111110001, 
000001011111011001000000110000000110000000110000000101000001101000000000111001111000100001000011111000000101000001100111110000111100001111000011000000011000011011000001111001010110111111111000001111111111011000000011000100010,
000001010000001100000000010000001111000001011111110010000000010111111011111111101111101111111110110111111111111101100111110100111110111111111100111111100111110110000001000111111101000000111111111100000001001111111110000000001,
000000001111110010111100001000010001000000000111101110000001111000000011111100101000111111111110111000101010000001010111110001000100101000000000000001110111011110000001010110010111000001111000010001000000011111110110111100101, 
111010011000000111111110001000000110000001000111011000111010011000010010110110101111111110000101111111100010111001100111110101111010001111111101000000010111101111111111000000000100111111000000001000111101010000010001000010101,
111111111111101010111001111000010001000000110110100100110111001000001001000011000111111110000010101000000001000000111000010000111100100000011001000000000111101110000000111111110011000000001000001001000001010000001101111111010,
111111011000000001111111010000000110000000001111101110000000010111111011111111110111110000111111100111110000111110000111111110111101110111110111000001101000001100111111010000001001000001010111111100111110000000001111111111000, 
111000110000000000111111111000001001111110110000001100111111010000001101111000100000000000000001110000000100111111010111101011111100111000000000111110110111101110000001010000001000000000011000010101000011000111110010000010100,
000011110111111000000010111111111001111110010111011001111010101111101010000000011000101011111111100000001010111010100111100011000011101000010000111110010111111110111111101111100100111110001000001000000001101000010010000100000,
111111010000011010111111011111111001000000111000010010000101010111110111111110000111101110000001001000110111111100100111111100111101000111011100111110111000010010111111000000011010111111111000010100111110010111110000000010011, 
111110011000000000000001001111110110000000111111110000000000101000000011111110100110111110000001111000000100000000011000001110000101000000000100111111011000010011000000100111101011000001001000001000111100111000000010111101100,
000000000111101110000011111000000101111111010111101010000000000000000111000001100000011000111010111000000000111111011000001000111010110000110001111101111000100001000001011111110111000000000000001100111100000111110101000010100,
111111011111111001111100010000000001000000011000100000001000001000001111000001000110110110000010011111110111111110011111101101111111111111110101000010001000001100111110110000101010111110111000000101111101010000001101000010100, 
000000101000000111111111010111110010000001011111111001000000001111110011111111100111101000111111110000000001111101111000000111111111011111110010000000101111111110000000001000000100000000111000010010111110111111110110111101111,
000000011000010111111111100111111110111110011111110000111101010111111100111110010111010110000101010000010111000001110111111110111111100110111101000001011111001110111110101111110101111110100111111011000011111111111111000001010,
000000110111110100111111010000001101000001110111101111111101000111111111111111101000000000000000111111101011111111011000000010000001001000001101000000000000001110000001110000000000111110001000001100111110010111110110000000000, 
000010110000010101111101100111111100111110100111101110000001101000001011000001001000100101000001001000001001110111111111001111000100011000001001000010001111110000000000011111001101111101101111110110000101111111111010000010111,
111011111000000101000010010111111101111110110110111001110001011000001011111010110111111000000011110111110010000000100111001101111110101111111100000001000000100010111101110111100010000000101000001010000011111000010010000000011,
111111101000000101000101000111111010000000000110011011111000011000001110000011100111101101111001110000000101000001100000011011111111100000011110000001100111101111000010001110010110111111100111110011111101110111111111111001100, 
000011111110100111000000000111111000000001110111011101111100101000000110000101110111000011111111011000001110000000111000001110111110100000000111111111010000001011000000011111010110111110110111101011111110010000001000000011011,
111011100000000000000000010000000110000001001000000000111100110111110000000000110111000001111110101111110011000011110000000001111010001111010101111111000000001011111110001001000000000000100111111100000101101111111010111111011,
000000011111101101000000100000001010000000110000000110000011011000010001111101001000011111000000001000001111111010010000000001111110001111010001000001010000001110000000010111100001000000000000000111111111101111110010000000101, 
111010010111100010000001110111110101000001101001001011000100011000001010111101001111001100000010110000010111000000111111011101111110011111111110111111011000000010111110111110100011111110011111111001111011001000000001000001010,
111110111000000011000001100000001010111110110111111001111011001111111010000001110000100000111110000000010111111111111000001011000010110000011111000001111111111001000000110000010111000000011111110110000000010000000111111010101,
000000101000000110111110010111101111111111001111100011111110000000001010111100111000010000111111100000010110000010011000010010111111110000001010000000101000010110000000101000110111111110001000011111000010000000001011111111101, 
111111000111110110110111100000000001000001100111110100000001011000000001111100111111110000000010110111010111111011111000000011000000100111100000000000001111000110111101111111011100111101111111111110000000101111110100000000111,
111011001000000111111010101111110000000001100000010110000010001111111110111100110111100110111111001000000110111010110000001001000010000000000000000010110000010010111101111111010010111110110000001101111111110000001001111101111,
111110000000011010000010110000001000111111110111101011000101001111111100111110001000010110111011110111110000111100010111110101000011000000001110111110000000010000000001110111100100000001101111110011111110100111111010111001100, 
111111101111010011000000010000001000000000011110111011111001001111110111111111000111011101000101010111011111000101010000011110111101001111100011111110111000100001000000000000110000111101110111110101000101010111101111111010101,
000101001000010011111111101111110111111110101111100110111111011000001011000101000000011000111011010111111011000010101000101010110111010111101110000000000111100111000010001110010001000000100000000100000001101000000110111010011,
111111011111111111000000101111110100111110111111101010000000110000000111111111011000000010111101010000000110111101011111111000000001111000001011000010001000000101000001110111110010000000010000010001111110100000010010000001000, 
000001101111101111111110010111110100000001100111100010000000100000001001111101101111001010000010110111010101000000000000001000111110101111000011000000111111110110000000001111000010111110110000010010000000001111111111111111000,
111111101111111000000100101111110111000000110111011001111100001000000000111100010111110001110011110111110010111110011111101111000001101000000001111111001111111110000001110110110110000010001111101101111111100000000111110011100,
000000010110111011000000100111111100000000101111010001000100010000001101000011110111010111111101010111100110000001010111111100111111000000000000000001001000000010111111101110101111111111011111111000111110100111111110111001101, 
000000110000001100111100101000001111000000000111101100111100100000001101000000110001000100000010100111101100000000111000000011110101001111111100000000010111111101000001010000100010111101110000000111111110111111111101000001001,
111001000000001001111110001111111110000001100000100001111101101111111000110111001000000010000001010111111011111110001111111001111110100000000100000000100000000000111110110000110011111101110000010000111111011111110110000100001,
000010001000100000111111010111110110000010010000101000000010010111111100111001010111001110111111000111101011111110101000000100000011010110110000000000010000001100000000100000011011111111001000000011100011001111111001110001101, 
000010100111000100111010010111111100111111001000000100000000100111110010111111100111110111000010000111100100000000010111101011000101101111101010000001101111001000000001001111100011000000000111110110111110001000000110111010011,
111000100111100110111010101111111010000001000111100110111110110000000110111101100111000101000101101110110100000000111111111100111011101111111100000000010000011101111110011111111110111111101000001011000111110000001100000011001,
000001011000000101000000110111110011000000110000001111111101101000000000111110111111101110000001111111110100111111111000001100000000100000000011111110100000000011000000001000000111000001111111110101111101010000000000111110111, 
111100110000000110000110110000001010000010011000000110111111001111101111000010010000001011111101011000010000000011110000100000000101010000001010111111110111110001111111111111101001000001110111101100111011111000001111111101011,
111111001111011010000001100000000001000000000000100001000011100000001001000100001000001011111110111000001101000000101000100001000001000000001000111110110111010111000000001111110100000000101111111101111010001000001100111100110,
111110010000000101000001010000001110111110101111110010111101101000010010111110101000001110111111101111101001111110010000001101111110100111110011000001100000001101000010011000000011111110111000010000111111001000001111111110010, 
111110101111010100000000010000000000111101101000010001111101110000010010000001010000011010000001001000000110000010010111011101000010010001010011111110111000100101111110010000111110111111011111111110111011100000010001000000000,
000101100111100000000110001111110101111110111111101010111110110111110110000000111111111011111110011000001000000000110000000110000110111110001001111101111111011110000010000000101011000000101111110100000000000000001000111011100,
111101100101110011111111011111111111000001011111110110000110111000010010111110101111001010000110001000100101111111011111111000000011000111111111111111110000011010111101110111110010111110100000001100000110110111111001110010110, 
111111100111100010000100010111111001000010011000011100000101001111111010111011100000100101000101000001000111111110101000000100001000101111110000000000111000011100111111010000011101000001111000010111000101111111111100111111010,
111110111000001000000001000111111010111111111000001111111111001000001100111110110110110101111110100111011101000000110111111001111110100111101111000010000111010111111111011111100100000010000111110001111010111000001110111101100,
111111111000000000111100110111101110000000010000010100111010011000000000111110111110110010000000000111100001111111011000000100111101011111100100000010011000010000000001111000101101000000110111110100000010100111111110111101000, 
111110100000010000111111100000000100111110000111011010111110101000000010110011111000101001000001100000101000111110011000001000000101110111110101111101111000010100000000010000100001000000110111101010000100010000000110000011000,
111110101111000011000000000111111100000001001111001110111111011000000111000001111111000101000011001111100010000000111111110001111101110000010001000001100111100101111110110000010010000001001000010010111101101000001001111111101,
111111001000011000111110110000001001111110011111001000111011010111110010000110101000001010111101111000100100000000111000010101111111111111100111111111000000101100000010000111111100111111111000010101110100110000000101111001001, 
000110110000010010000001110111110010000010110000000011111110000000000110111100111000011001000010111000010100111001101111000101000011010000100011111110000111101101111111101001000101111110100000010100000100111000001010000001101,
000000111000001000111111010111110101111111111000001010111101010111110010000000000000001010111101100000000000111110001000000111111110010111111010000000010111111000000010000111101110000000110111110011111101011111111110111111011,
111111000111110110111110111000001011111110110111101111000000011111110100000001010111110010000000110000000000111101100000000000000001001111101000111110011111110101111111100000000000000010000111110010111101110000000101000000010, 
000000001000001000111110100000001100111101110111111101111101101111110010000001001111110100000001010000000110000001101111110010111111010111110010111111100111111111111111000000001000000001001111111001000001011111110100000001011,
000010001111101000000010001111111100000010000000001110000011010111110111110110011111110000111110111111101001000010001000100101111101101111000110000001011111001110000010001111001000111110000000000100111101110000000001000000010, 
000001010000010110111111010111111110000010001111110010000000110111110011000101010000011000000011011000101100000001001111110010111110100000111100000000111000001000111110001001001001111111100111111011111010101000000011000110110,
111110000111110000000001101111110101000010001111101111000001101000000010111101110111110010111101100000000010111110111000001001000001101000000000111110010000000101000000001111111100000000000111111101000000100000000100111101011,
000000001111111001000000111111110111111111011110111000110100000111110100000000001000100011000000001111110000111010001111010010111101011000000101000000110000000000000001110000001011000010011111111000000101000111110011111111000, 
111110011111100011000011000111110100111101110000010111111111001000001010110010111111110101000001100000000000111011111111000011000010110000001010111110100000100101000001100000100001111111000000000010000101000000001011000010000,
000101111111111110000011010111111110000000101000001001111101011111110111111101010111111101111101000000010110111010100110110010111111000000010000000001001000101010111111010000110100111111001111111100000001100111111011000100001,
000001010111111110000001111000000100000000110111111101111111000111111101111111101111101001111110000111111111000001101111111000111111111000000100000000010000010000000000010111111001000001010000001100111110010000010010111110000, 
111101010111100101000100100111111110111101111111011110000000101111111001111101110111000110000011111000001001000000001000000000000000100111110001000001100000001100000000100111010001000001011000001101111001000111101111000101011,
000011101111101001111101001111110000000000110001000101000111011000001101111101101111100001111111000000000000111100001111111110111001010000001101111111010111010010000001100000011110000001111111110100111001011000001100111110001,
000101000110111110111101011000000111000001010111010101111001100111111011111100001000000001111110010111100110000101110000010110110011011000000010000000111000010011000000001000001000000000000000001001110111010111111100000000000, 
000000011111101000000010001111110000000001100000000010111000101000001101110010000111101010000010000111010001000001010111101101110101000111011011000000101000010100000001111111110010111110100111111010000000001111110110111110001,
111110010111111001111111000111111101000001110111110000000001010000010010111110011111110000000000100000000000000000010000001000111101111111101110111111000111101101000000111111110111111101110111111011000000001111110011111111001,
111101110000111101111100111000000111000000101000001100000010111000001010111101111111000010001000011111110011000010111111111111000110111111100000111110101000101100111111010000000100000000111111111111000101011000000010111001101, 
000011110111111101111101100111110111000001000111110010111000011111110000000000100000111001000000011000100010111000010110110001111110100000100001000000110111110100111111000000000001111111010000000100000110011000000101000110111,
111100111111101011000001011111110110111111010111111010111110100000010000111110111111111010000000011000111011000000011000010100000001011000001001000000110000010000000001010000010110111111110111111110111011100000000100000100010,
000100110000000000000001101111110101111110011000000101000011000111101110111000111110101101000000000111110110000000011000000110000000100110011101111110001000010101111111000111101111111111000000011000000111111000000010110010000, 
111101000000000110000110000000010001111101111111100100110111010000001001000000101000010001111110101001000110000101010000101100111100010000001110111111101111110000111111100111010011000001010000000011000100111000001000111111111,
111100010111110110000010110111111111000010110111100001111100100000001011111001100000010101111100000000101101111110010111110011000111010111101110111110111000000101000000011000100001000000101000001100000001110111111101111110000,
111111110000001011111111001111101110000001111111111010111101101111110011000001100111110101111111101000000010111101001000001011111110100111111001111111100000000011111111011000000100000010000000001011111101100000001101111110011, 
111101101111110111111111001000001100000000000111110101111111011111110001000000011111111011000001100000000101111110011111111110111111000111101100111111110000000001000010001000001011000000010111101111111111110111111000000001100,
000111101000100000000000101111110100111101011000001000000001011111111001000010111000000100000011000000010010111001111111110001111110000000111000000000101000011001111101111001001011000010000111110011111111101000001100000101010,
111100111000100111000100101000001110000000000000001011111111001111111000111110100000001100111001110000010111111111101000001011000000001000100110111110001111101000000010010000011010111110001111111010111110111111111100111111111, 
000001000000001100000001000000000100000000001000001100111101001111110111111110001111111001000000011000000111000001100000000101111110010000000110000000010111111110111111110111110110000001000111110010111111011111111000000000000,
111101110111111011111111111000001000000000111111101100000001100000001111000000000111101100111101000111101101111110011000001000000001001000000000111110110000000000111111011111111001111110000000000000111101110111111011000000001,
111101111111111001111110000111111000111111000000000110000000011111110100000000101000000000111111101000000011111110111111110101111110010000000100000001101000000110000000101111110011111110010000000001111110000000000111000000001, 
000100111111010010111101100000000000000000000111111110111011111000000000001010101111100011111100011111000001000010011000011110110001110000011110000001011111101100111110100111000110000000000000010010110001111000000000000010000,
000010101111100111111110110000000000111110111000000100000011111000000000000000100000001100111111000111111001000000101000000100111100001000000011111101101111111011111110100000000011111111011111111000000000001000010000111000101, 
111100011111111101000000101111110111000010010000000000000101001000001000000010100111110000111111001000100111000001101000001000111101011000110000000010010000100111000000111111001000000001010000000100000000000111110100111011000,
111111010000001001000000010000000010000001100111101100000000100000000011111111010111110000000000111000001001111110010111110001000000000000000101000000010111101000111101101000001011000001010111111011000000000111110101000000001,
000001001111001111000000011000000110000001010000100010000111110111110001001001011111011101000010101111101101000001101000011111111000001111110101111111101111011011111110101110110011000000001111110011111000010000000011111110011, 
111010001110111010111101110000010000000001100000010010111101100111101111110111111111000110000101000111000001000001101111101111110101110111000001000000000000111010111111100111010010111111100000000110000000111000001000000001111,
000101100000000100111111011000001101000010001000100011000000000000000100111111011000001100111110110000011001110101111110111000111101000000100010111111100000000010000000000001001001000000110111110110000001101000000011000011110,
000011010111110010000100001000010001000000000111110011111110010111101110111110111000000110000001001111111110110111101110111101111011011111101111111110010000100000000001010111111111000001100000000111000010100000001101000100111, 
111100001000000111000011101000001001111101011111000101111011111111110110000100001000000000111110100111101010111111111111011110111011111000101001000010001000000000000001000111100010111101111000010101111110000111111000111101100,
111101111111101101000000100000000010000001001111110100111101110000001011111111000111111111111101101000001110111101011111111001111110010000001111000010010111110111111101110111110010000000100111111110000001000000000000111110111,
111010111111110111000100101111101101111110011111011011111011000000001001111100010000101110000010010000000100000000101111011110000010110000011110111110110000011010000000111000010110111110011111111011001001100000000111000000010, 
111110110000001100000001011111110101111111011111111110000000010111111110111100111111101110111110101000000011111111011111101000111101100111111001000000111000000000111101101111111001000010000000000110111101101000000000000010000,
111100100000001001000010100000010001000000110111010111000001001000000101110110010000100000000101001001000001000001010111110000001101001111100001000000110000010001000001010111110011000000001111111000111111101000000101000010110,
111011110000001110000100100111111010111111101111111111111011000000000110111100000001001100000001000000000111111101100110110000000001000000101110111110011000100110000000011000010011111111101111110000000100101111110110000100011,
111111101111110001111101011111110010000000000100100100100011110000010010000000001000000111111100101111000110000010011000001011110100010000010001000001011000001110111111011111010011111111010000001000111111101111101101111101000, 
000001001111111110000001100111111011111110000111101001111110101000010000000000110111110000000000000111111101000001111111111000111111010000000100111110000000000111111110001111110111000000000111110101000000100000000111000001100,
000100101111111111000101100111111010111111001000001111111101100111111101111110101000010110111011100000001011111011000111001101111100110000011010000001001000101110111111011001001010000000010000000010000100011000001101000101111,
111111001000011001000001111111111011000000001111011101111010110000000000000010010001011110111011111000101010111001000111101101000101010000011001111111110111101110000000101111011101000001100000001100000001100111111010000010000, 
000011001000001011111011100111101111000000001000101111001000000111110101111100100000001001000000000000110110111111100111100110000000111000000101000010000111011000000001010000110110111110101000001011111110001000001011000000000,
101100011111101000000000000111111111000010000111101110111110001000001101000001011111110010000011000111110110000000001111011101000000000000010010000001101000101000000000001001010000000000110111110101000001010000001101111111010,
001010111111101011111001010111111010000000001111110011000010101111101110000010100000000111000101010000100011000000011000001110000001011000001010111110101000000111000000111111111011000000000000000101110110111111111101000010011, 
000001010111101001111111000000000111000000011000011100000101110111111001111011000111000110000000111111111011111111010111101010111000000111111011000001011111100000111110001000001000000001011000001000111101001111111001000000110,
111110000111110001111111101111111111111111010000000001111110111000001010000001011000000010111110000000000000111101011111110001000001011000001010000001111000001110000000110000000000000001110111111100000001110111111011111111010, 
111110101110110011111110101111110110111111010110100001111111001111111100000001010111001000111100000111011001000001011000000010111110101111101111111111100111110110111111110000010011000010000111110111111101100111111011111001110,
111101100111110100111111011000000110000010000111110000111101101111110100111111110111111001111101010111111010000000100111110101111110001111111000111111111111111100111111101000001010111101110111110011111110011000000101111111000,
000101101000101111000110111111111100000000111111101100000000000111111101000100100000011000111110110000011100111001000111011100111111101000111000111101111000000000111110100000000100111111001000000000000101001000000110000011100, 
111001111000001100000000100111111011000000000111011011110011011111111011000011100001000010111100001000001011111011100000000110000101111000010101000001010000011100000000101000010001000000000000000100000100101000000111111111111,
111100100111111100111101110000010010000001010110000100110001011000010000111100010000101010111111110111001100000010000000100111111111000000000010000001101111110111000001100000000101000000101000001010000011100111111110111101011,
001011111111100000000100101111111101111111110111001100000100101111111101000101101110101110001010000111001101000011110000011101111011000111110011000000101000100000111101101111110100111111100111101111111100101000000000000000000,
111100010000001111111110010000000000000001100000011110111001111111110100111101100111000101111100100111110110000000011111101011111101100111011000111110011000000001111111011111110100111110001000000100111100110000000000111110010, 
000000001111110000111101100111110011000000100000111011000011101000000101111110101000010011000100000000101100111101001111110011001000000111111101000000111111011100000001111000000110000000110111110110000011010000000000111101000,
001000101110100001111101111111110001000001101000011101111110111111110001111111011111010000001010001111101011111101100111011111111010101111111010111110010000000011000010100111000001000001111000001000000000110000010001000100110, 
111011111000000110111011011000000110111110010000011001000100110000001010111101101000011011111101000000001100000001100000110001000100011111111010111111101110110111111111001111010110111110010111110111000001110000010000111100101,
111001001000001010001000000111101110111110101000011110111101100111111001111111101000100001111111100000010101000010000111111001000100111000010110000000101111111010000001100000001100000000010000001010111101001000001111111111110,
000100101111101011000011001111110101111110101000000100111110101000001011000011100000000000111110000111111111111111111111100010000000110101011110111110110111110000000000000111101100000001000111110001000000001111111110111010111, 
000010110000001101000010101000010011111111110000011010000110100111111110111111010000000111111111111000001111111100000111111001000000001111001111111111111111100110000000000000011000111110111111101011000001010000001101111110010,
000101010111101101111101000000001110000010010111011010000100101000000000001001110000100011001010011111111010000001111111110101111110011000111000111110000000011110000001110111010100000000111111111101000000011111111110111011010,
111111001000101011111100100000000010000001100111011110110011110000001110000001111111001011111110011111011111000010101000011011000001110111100001000000000000100011111111010110111000000000101000000000111001010000001110111011011, 
000010110111010111000001001111110100000010000111100001111110000000001110000001101111101001000000010000010110000010000111111110110101111111111111111111001000001101111111110111111111111110000000000111000010011111110101111100010,
111101111111111011111101111000000100111101110111111100111111100000000010111110010000000110111110110111111010000000100111110011111110100000000010111110011000000100111110101000000011111110110111110100111110010000000101000000000,
000011110111010001000001101111110111000001111000000101000011100111111101111010000111101101000010110111101110111110111111101100000011111110011101111101110111101100000001011111101011111111001000000111111011011111111110111011010, 
000000000000010001111111100111111100000000000111101100111101101000000111111110001000000011000011101000000101111110010000010110000100110111110110111110110111111010111101100111110010000000100000001011000110101000000011111110010,
000110100110000001000001100000000110000000010111110111000011001111111011111000111111010011000111100111000101000010010000011101111000110111111100111111101000010110000001010110101001000000100111111010000110100000000011111110101,
000011001111010001000001010000000000000000100111101011111001011111110101000010100111110000000100001111111010000010001111101100000000000111001000111111001000001100000001111111111001000001000111111100000000011000000101111101110, 
000100111111110010111111101000001100111110101000100010111100111000000010111010011000000000111100100000000001000001000111010111111101000000011110000000000000001001111111100001010111111110111111110011000110110111111101000001100,
000011000110100001000010011000001001111110101000010001000011001111111011111101010100010001110100000000010110000001100000001101111111001000000010000000000000000011111111100000001110111110110000000001111110000000001110001001100,
000000101111111101111111011000001010000010100111010011111011011111110100111111100111101000101100110000100010000001000000010100111100011111000001111110111111011110111111011000001110000001001111110110110010000111110110110010111, 
111001010000000010111101010000000111000000010111110101110011111111110011110111110111100011000001101111010101111111000111101100111101000111111010000010001000000110111110000111001011000001010000000101111011000000001110111011101,
111110101000000010111101101111111101111111000111110100111111000111111011000000101111101100000001000111110011111101110000000011000000100111110000111110011000000100111111110111111011111110011111111101111110100111110111111110110,
111111101000001110000000110000001011111111010111100010000001110111110000111110011000010011111011110000100111000000011000010110000101101000000100111101111000010111111110101000010100111110010000000110111100110111110000111110101, 
111110111000100110000000001111111001000001010000011110000100101000000100000010100111111011110000111000011111111101010111011111111111111000100110111111101000100101111111000111110111111111111111111001111100011111110111111110011,
111111100111101111000001000000001010000001101111110100111101101111111110111111110111110001000000001000000111111110101111101111111111011111110110111110100111111101111101101111111101111110010000000101111101100000000000111111000,
111111110000010100001001111111111110000000001000010000000100110111111101111101111000000110111111011000000000000001011111110010000011111111100001111111000000111110111111101001001110000001110000000100111000111111110100111101101, 
000010110000110110111111110111110110000001101111100011111111100111111000000010101110100001111011001111111100000011101000100010000100101111101001111110000000000100000001011000101000000001100111110110111101100000001000111110100,
000001100111110011000010010000001100000010011000101000001001000000000111111001001111000100000001101111111001000011011000001001000100001111011100111111010000001100111110011111101111000001110000000110000010001000000011111010000,
111100111111001010111110101000000110000000000000011101000100010111110001111010100000001100000001100000000101111110011111100101000100001111111010111111010000000000000001010000011000000010010000001111111110101000000100111011011, 
111011100000001011000010001000010010111101100111111100111010101000000101111100100111110001000000010111100110000001001111100111111100110000010001000000000000000001111101011000010111000010000000000010000011000000000000000110010,
111001100000101010111110000111110011111110010111011111111001100000000010111101001110111100000100100111011101000011100000000000000000101111001100111111000000001110111110111000010101000000001111111011000011101111101110000111000,
111101101111001011111100100000001011000001000111111111000001010111110111111011001111101011000101010000001010111111111111001011000110100111101011111101110000000111000001000000010101111110110000000111001001101000010001111011010, 
000000001111010110000011110111110001111111110111001110110101101111111100000001101000010111000001110111100110000010111111011001111010111000010011111111000000010001000001000000100101000000001000000010000001101111110011111111101,
000000001000001111000000011111101110000000001111011111111110111000001101000010010000110010000100001111111001000011010000000111000110001111100001000000011000010101000000101111101111111101111000011000111110100111111110111110101,
111111001110100011000011001000001001111111000111110100111000100111101110111111000000001101000001110000100111111000101110111001000011110000000000000001110111100000111111110000100111000000010000010011000010001111110011000100100, 
000000000000000000111110111000001001111110010111110111000000001111111010111110010000000110111101110111111110111101111000000110111111001000000001000010000111101010000000010000000010000000101000001000111110110111110101000001011,
111101000000001100111110110000000111000000111111110101111101101000010001111100111111111010111110010111111101111110011111110011000001001111110110111110001000000111000001111111110111000000000000010001000001000000001000111110110,
000001001000001101111111000111110000111110001000000100000000001111111011000000001111111101111110100111111101000000010111101010000000101000001110000010001111110010111101111000001000000000000000000101111101110111110101111110110, 
111111111110111001000000100111111111000001111000011000000111001111110000111100000111100000111100101000000010111110100111111001111010001000001011000000011000000100111110100111011101000000110000001100111100111000001101110011011,
111001101111100011000011000000000110111111100000100010110110111000010000111111100000101000111111101000010100111111011111100110111100001111101010111110011000101010000000000000101110000000010111111010111111100000001000000011010,
111111010000000001111111100000000000000001000111110100111110110111111010111101111000001000111110000000000001111101101000001110111101101111111001111110000111110000111110001000000110000001000000001101111101110000000010000000111, 
111101010111011100111101101111111110111111100111001011110010101000001110111111101000010001000100111000100000111010011111111100111110011000000101111110101111101111000001111111011011111110110111111100000101000000001110000110000,
000001111111010000111001010000000110111101111000000000111101001000010001000000000111111100000111111111110101111011100111101011000101010111111011000000100111110010000000000000001010000000100111110110111111101000001110111110100,
000001110111111110111100101111110011000000000000010100000001110111110010000000101111101000000011000111111001111011010111110000111111100111111111111111101111101100000001001000110100111110101000001100111111000000000101000101001,
000000001111111100000001001000000011000010010000000000111110100111111000111111100111101111111110101111110110111101111000000110111101100111110011000000101111101111000000100000000111000000000000010001111110100111111111000000110, 
000100101000100010000001111111110100111111100000001001110110110111110101111111101111100001000100101111100011000010010000000111000010111111110011000000110000010100111101010000001010000010000111101101000000101000001111000001001,
000010000000011010000010011000001111111110110000110011001000111111110001111111011111010010111111110000001010111101001000000000111000101000101100111101110111111011111111001000000011111110110111111010111101011111110110111110110, 
000000001110101100000001100111110001000000110111110101111100100000010011000011010111011100000001110000011011000010100111111101111100110111000100111111100000000100000001001111110111111110101000000101111111110000000110000001010,
111100110000000101111100100000000111111110101001001110111100110000000100111110110111101000000000111000001111000001110111111111111111011111110011000001001111101111000000110111111101000000111111110100111100011111101101000001100,
000000000111111000111110101000000010111111101000001001111110100111111111000000011000001000000000001111110011111111100111111111111101011000010001000001011111111000000000000111101110000001110000001101111111010111110001111111111, 
111111111000001010000100100111111110000000111000001011000011000111110100111000011000001100000010110111101100111111111111111101000011001111011100000001011000001100000001100000010000111111111111101111111110100111111000111000110,
111111111111010111000000001000000010000010001111111100110110110000000001000001010000011110000111010111111010110101101111100000111101100000000110000001101111100011111111001111110000000001101111110111000100100111110101000101100,
000001100111101011000011010111110110000000101111111111000001010111110111111110110000011101111110011111110110111101010111111000111111010111110011111110000000000100000011000111111111000001111111111111111011101111111000111010101, 
000010010111101010000010111111111111000010010111111100000110101111111001111001111101110100111110001000001100111111110000011100000100100111101010111111110000000111000000101000000010111110011000001001111101011000001011001011001,
111110101000001010000000010000001011111110100111010101000000101000001001000010000000101101000000000000001011000011110000100000000101001000000111111111101111101000000000110000011010111111111000001011000110101000000011000100100,
111011001111100000000000100111111011111110111111101010000000010111110011110111101000100111111100000111111000111111000111111010000110000000110101000001100000011010000010011110011111111110110000000000000000000000001011111111100, 
000000011000001001111111011111110001000001001000001010111101011000000101111110001111110111111111111111110010111110101111110001111111111111111100000000000000000010111110100000001010000001111000001001111101010111110001111111101,
111111111000000111111111010111110100111110100111101011000001011111111100000001000111110000111111000111101001111101110000000011111110110000000110000000000000000001111110111111110111111111110111111110111110110111110111000001001,
111101101111101001000011010000010010111111010111111110111010011111111101000001101000010101000010111000011011111011010110110000000001110111100101000010010000001011000000000000010111111111101111110001000011011111110110000010010, 
111100011000100011000100011111110100000010111000001110111001011111101110000001110000101010111001100000000010111110101111011101000000001111111000000000101000100000000000010000010111000000110000000010000001001111111000111010011,
000001011000010011000000100000010000000000110111101010111111010111110111000000011111111100111110100000001000111101101000000011111110000000000110111110111111101011111111110000000000000000010111110001111101000000010000111101010,
000000110000010000000000101000000101000000011111111100111110011111111010111111100111111110111111000111111011000000011111111010000000000000000000111110101000001010000000100000001010111111101111110111111110000111111000111110000, 
111101101000000001111111000000001001000001001111110110111111110111110110111111010111111001000001110000001110111110000000000110000001110000000101000001100111110000000010010111111011000000101111111100111110001111111100111111010,
000001111111001000000000101111110100000000111111101110000000100000000100000100010111100111000111101111111100111110101000001001111010011111101010000000010000001101000000111110001101111111110111110010111100111000000000000110001,
111110111000101110111111010000001110000001101111000000111111001111110010000101011111101011000000001111101000111101110111111001111011110000101010000001010000000011111101111110101010111101111000000100111100111000001100111111011, 
000000011110101010000001111111101101111101010000010101111110110111111111000010011000010000000011000000101111000001100111111010000000100111111000000001100111101110111101101101110000000001101000010000000110110000000101000011101,
000000111111101111111101100000000111111110101111111011000000110111111011111110111111101010111110111111110110000000000111110010000000110111110110111111010111111110000000111000000000111101111000001101000000010000001101111101011,
000001111000000111000100010111111111000000101000101110001010000111110010000110100111101101111111010000010011111111011000000011111011010000010011111111111111111001000000000100110001000001100111111001111001000000000011000010110, 
111010110001000010111110111000000001000000000000100000000000000111111101000000011111010000000001010000000011000011001000001101110111000111001101111101111111100100000001000111111011000001110000010000111100110000001010000011010,
000111001111111100000000010111110101000000000000100111000010010111111001000001001111101001000100010000101100111010001111100010000010100111011111111110000110111101000000010000111101000001001000000100111011010000000100000100100,
111101000111101100111100100111111000000000000111111100111011100000001111111111100111100010000111110111101000111100110111110011111100001111110001000000010111011110111111101111110110111111001111111111000011111000001111000110110, 
111011111111011001000010010111111111111110101111000010101101010000000100000001010000010110000001010111101011000010000111011001111110101000000111111110000000001001111110011000110001111111110000001100111111010000001110000100011,
111111101000001000000001001000001000111110110111101110000000000000001010000010000000001011111101010111111011111110001111111101111110111000010010111111100000001010000001110000001101000010010000001110111101111000010001111101110,
111010110111111000111111010000000001111111110111100011000001010111111010111110111000000111000011011000000111111100110000000110001001011000010000000000011000010000111110101000010100111110111111111110000010111111111100111110010, 
000001001111110111000000000000001000111110111111111000111110011000001110111110111111110111111110001000001010111111111000000110000001111111111010000001110111101110000010000000001100000001010111111011111111110000000000111111110,
000001110110110001111100010000001100111110010111011111111010110000000101111001100000101100000000000111111101000011100111110011000110100001001011000001000000101100000000100111110000000010000000010110000011000000010010111101010,
111100010111110010111000111000001011111110101111010010110111101000001001000010010000010111000101111111111101110010001111011011111111100000000000111101110111011010000001111111101110000000111111110110001010010000000000000111001, 
111100111111010101000011011000001111000000110110101110100000000000000011111110011000010101111010100000000000000000000111101101111100000000000111000001001000000001111110011111101000111111100111111000000000001111101110111000001,
111101111111110111000000100000001010000000110111110101111110011111111000000000000111110010111111111000001111000000000000001001000001101111111100111110110111110001111110111111110111000000100111111000111101001000001011111101110,
000011000000001001111101110000001111000010000000001010111111100111111000000000101111101101000011000000110010111101111111111101000011100000010101111110111111011000000010001001100101000000100000001010111101101111110101000101000,
000001011111111011111000001111111111000001000111111001111101111111111100000000100000011111000001110000100011111001011111100101111100010000011111000000010111100011111101111111010101111101111111110000000001101000000000000101100, 
111101101000000100111111101111111111111111101000111101000100111111110110111101110111110011111010000000001110111101011111111111111101000000011100000001110000001100000000001000011001111110101111110110111100111000001000111110001,
111001000111100110111100110000000000111111101111111111110111110111111111111101100111111111000100001111100111000000100111100111111100100111001000111110101111110000111111101000011100111110000000010011111010101111111011000000001,
000011010111010100111101000000000101111111010000011000000010011000000100000000001000011010110111111000011001000000000000010000111001101111100110111111100111110011111110000111111010000000110000001010111101101111110010111010000, 
000011010111111110000100110000000110000000110000101110000111001111111011111111010110100010000010000111111110111111100000011010111011101000001000000001000111110111111111100000100000000001000000010000111100110111111110000101001,
111101110111111010111111001111110011000001100000001001111111010000000111111110111000000010111101101000000110111111001111110010111110111000001010111110011111101110111111011111110010000001110111110100111101011111111010111101111,
000010111000011100000001110000000101111110011111100110110001100000010001111111011110101100000100011111001101000000101111111001000010000000010011000000111000101010111110110000010101000000001000000101111010111111111010000011110, 
111101101111111100111100110000000111000001110111110110000000111000010001000001101111111110111101110111101011111110010000001101000000000000000000111111110111101010111111001111110001111111011000001000111111100111111101000001001,
000001101111111100111110101111111100000000011000010010111011101111111111000110011000010010000010110111111111111011000110111011111101101000001111000000100000000101111101101111010100000001001000000000111101111111111111000101101,
000001001000011101111110100000000100000000001111000011110101010000001100111110101000000111000000011000011111111110001111101111000110100111111010111111110000000101111101000111100111111101101111110010111101001111110010000000110, 
000010011111000111111101001111110111111110110110011000110110101111110011000110101000100000111110001000011011111011101111110111000010001111011000111111100111100001000001101111010100000000000000001110000110000000001000000000001,
000100011000100111000001101111111100000010000110111001000000001000001110111111101111011101000001100111101101000011010111110011111011111111111010000010001000000110000001111000100101000000111111111110000000000111110100000010110,
111101101000010100111110110111101111000010001000000111000000101000000100111010100111000001111110110111111011000000111111101001111011100000000101111110111000000000000000011000000110111110101111100010000000111000001011000001101, 
111001100000000100111110101000010001000001111000101010001100010111111000111111010111111011000010001000001110000000000111101001000010011000000101111101110111110000111111101000001110000010001000011001000011010111111000000000100,
000100101111011000000010000111110011000000001000011111111110101111111100000011100110100011000101111000000011111110100111011110111100111111111000111111100000001100000000011110111000111110101111111011111110110111111000111110101, 
