memory_initialization_radix=2;
memory_initialization_vector=
000000100000010011111110001111111000000000010111111010000000011000111001000001010111111110000000100000000111111100101111111010111111110110111111111101101111110111,
000011110000000100000011011111101100111101110111110100000000100000011100111111011000000111000010010000101101000011110010010111000010101101110111000111100000010001,
000110011000011010000001100000000011111110001111010100000000100110111011111110011111010001111110001111100010000000001000000111000111101111111010110010101111111010,
111011110000001010000000001111111011000000110000011000111110100000001101000000100111110000000010001111010010111010011111110100101101000000010000000010011000001010, 
111001011101110001000011010111111000111110010000001001111101011000010010000110001000101100111111111000010010000010110000011000000001111000000101000100101111101100,
001010001000001001000100010111110011111110010000011000111110111000000100000001110111100000101111001111110110000000000000010110110110010111101001111111010111101101,
111111101000010001111111111111100111000011011000010000000000001001000111000001110110101010111011101000011110000011101000011010001010010111111111000010111000001001, 
100000010110010100000011110000000010000101001000000001111111000111110011000001010111110010000010111111100011111010000111100110110011101000011011000000100000000100,
101100011000000000000010001111111001101101011110110000111111100111011110000001010000101001111111011101110111111101111000010100100100111110111110000010000000001110,
000100100111111111101111100000001110000000101000010110111110001000101011111110111000001101111111100111110100111111101000001101111110011111101000000011001111111100,
111110111000100101111110110111111001000011000000001000111101011111011111111110110111100010000010010000000011111101010000011010000010110000001100110111100111111000, 
000000111000001000000100000000010101111110001111110101111110101001001010000000011111111110000010101000100110000010111000000011000001010111110010000000110000001001,
000010100000011010000111000111101110111110101111111100000010000000001101000100100111010110111011001000010011000101100000011001000111100000001011111101101000001010,
111111111111001100101011100000010010000001110000010101000001010000010010111010000110101111111111110000000001110010101111110010000010000111110110000001111111110111,
000100100000000100111111101000000100110001001110010010000010001000000010000000011000110100000000000111010011111111100111110111110000011111110011000001100000001100, 
000001100110001011111101100000010001000011000000000111111101110000000011000010010111001010000101001111011011111011101000101011000000001000001010000100100000001110,
000101011000000111100111110111110111111111001111110101111111100110111100101111101000010000000000010111001001101011010111111100111111101111110111000000000111100101,
000001100000000011111111101111111111000001110000001011111101111000010100111110110000000000001000111111111100110110100000001011000010010111111111000001000000001110,
111110010000110101000001101111110010000001010000000101000010101000000011001011110000011110101111001000000001000101001111111100111001100000111000110111111000010010, 
111000001000001000000000010111110000000010111000001100111101110000011011000010000000100111110011010110011010000011101000001110101000000000101100001001000000000101,
110110111000001001111011011000001000111110010111101101000010001111100011000010000001001100111111101101100110110010000111011110110011011000101010111100000111110011,
000100101000101100000010010000000101000011000000000010000010101111110001001000011000011110111111001000110010111110010111111000000100000111010010110000010000001111,
111000010000010000110000110111111110000001010000010100111101110111110100000000101110000111111111001111010101111101010110010010111110100000000101111111001111111101, 
111111110000100100000101111111111111000000101111111111111110011000100110001110010000100000000010000000100100001100000000101111000010001000101011000000111111111100,
000000000000001110000001101000001010111101100111111110000000000111110010000000101000000110001110000000001001111110111001010111000000100110100000000111011111110011,
111110010000010111111101111000010001001000111000100110111110011111001000110111110000000000000000001111010010110011011000010100111010101111010101000100101111111111,
111111000001111000000011110000011010000000001000001100000001010000110011000110100111111111000000111000000101111110000111100100000000111000001100111110111111111111, 
000101100001001101111111100000010100000000111111101001111110100111110100110000001000000100000000111000000100111111011000000101000000111111011010111111101000010100,
110010101000010001000000011000010010111011100100101111000000101000010010000001101111110111111111001000000000000101010001000010111111101000000110000011010000000001,
000010110001000111111111100000001110111100101111101000000010100111011000000100101000111000000010011000000001111111111000001011000010101000000101111110001000010110,
001000001111110111000000001000000010000000000000101010111101110111101010111111011000000010000000110001100011000011100111000110000110000000100111111001100000001010, 
111111110111100100111100010000010110000100100000010000111101110000100100000001000000000000000001010111110100111011000000011110111111110111011000000100001111101110,
111111010110101011101110111111110010000010001000110011000001100000011110111101100000110110000101110000000001000001110000001101000001101000001010000010111000010001,
100001101000001111000001111000000010100001111111001011000010001111010001111111110110000010000010001110111010000001001111111011110011101111010011001001001111110100,
111101111000001001000000110111110111000001111000001000111111100000110010000000000000000001111000111111111001111110001000010010111111010101001000101010110000001111, 
000100000111100110111101100000000000111001101111010101000001011111011001000000101111100101111110111000011100111110101111101100000010101110111010110111011000001000,
001101010000011001111110000000001001000110000000011000111110111000000110000011001111100111111101010111100010000001111111110101111011101111110001110001110000000001,
000011011111110100000001100111111100111101110111110101111101111000010111111100111000110010000111010111111010111101010111101110000000100111010010111011010111111111,
000010100110110101110010101000000110000010100000100111000010101000110010000000010001000001000010101000001111110001100000010101000001011110000001111110111000000000, 
111100010111110011111111100000001001000110000000111010111110010111111101000011111111100010000000000000000110111100000111000000111101110000000111111011101111110101,
000111001111100101000001101111110001000000010111111110111110010000000000111000111001010101000011000110101000110101000000111110111001011110000001111111110111110001,
000101101111111011111101011000010110111101001111011001111101010100011111111000011110100001000110110000100011111100010000101010000110110111000000111110111111101100,
000101010000001101000001000111100111000001010000100100111101111101001000000010100000000000111001100001001110000010010000100100000110011111110101110011000111100111, 
000011110000110001000100110000000000000010010111111010000000001111110101000110110010000010000000111111111101111111000111111100111110010000101110111110011111110100,
111001110000000000110101100000001111000011001000011010111110101111100011000001101110110011111111000000000001000100110000011011000001010000100011000110010000010010,
101101001000001011000000010111101000110110011110000001111101010111111001000000000111011000111111010111111001000000111111110110000000000111110111000010000000001101,
000111110110110010111100111000000100000011100000011101000001101111111111111011010000001000000111111111010100000001111000101101110010110000000000110100011111111101, 
000000010010001011010001100000001111000001110111111110000001111000001000001111001001101100000000000110110010111111011000010010000001111001010000000000001111111001,
000000110000000101000010001111111000111010101111110100111111111000000110000011101001011011111100111111010101000010100000011111111111101111100010000001010111101010,
001100101000100000000100001111111001111011011111000101000000000000011000110010010000000000000010010111111011111110011000000010000101110000011101111110110000000110, 
000010111110101110111010101111101110000010000000101111111111010000100100000010110000010011110011000000000001111011110111000111000010001000000101111101010000001000,
000010011110111010111110111000010011000101011000100101111110001111100110111110100111100110111110100000100100111110110111100010000000000000000000100111110111111100,
111101111111011101111101000111110000111111000111011000000000110000000100000101011000100001111110111000100000000010111000100001000100000000001000111011000111101111,
111011111000001010000100010000000000000001000111110011000000011000010011000010010000001110111111010001000101111100000111100011000010100111111100000010010000000000, 
110101100111111000000100100111111101000101011000101000111110111111110011111010111111011100000011100110111100000101110110011101111001100000011010000001010111111100,
000010010000000000000001110111110011000011101000001001000011001101111011000000100000000101101011110000000001110110011110110100111111111000010001111010001000010010,
111101010000100010000001010000010100000001100000001101000001011111001111000010100111110110000000101100010111000000000000000111000001101000000101000000001000001011,
111111000000100100000011010000001101000100100000110110000001111111001011111110111110101001111011000111100110111010000111100101111110000000001100000001001111110101, 
000010001000000010111001000111111000000110110000110011111110110000000100001000010111101111000000101101101010111110010111101100111010011000010111111110101111101011,
111001110111111011111110011111101111000100111000010011000010000001100100000000011000000000000011000000101000111101010111110010000100101111110001000101111000000111,
000100100111110111000011110000010011000001010000001010111101010000000100000100110111110100111111001001111101000010101111010100001000001111110011111100010111110110,
110111110000000111111101010000000000000001010111011101111110000000011011000011101100100101100000000000010110000101101111011010000100010000101011110110010111110110, 
001000011000000100000000011000000001100001000101001100000001101000001110111101111000100001000001111000011000000101011000111001000011101111101011111011101111111010,
000010111111100011000100010111101011000100111000001110000001001111100111000000100111110110111101000000101101000011011000101001100100101000011010001001100000011100,
000001011111111001000000001000010000000010000000001010000000101111101111111110011000010100001101001000000110000000000000110001101110101000101111000100010000000001, 
000110111000001101000101101000010010000010100111000001000001011111001100000001001000111000111110000000000111000000011000110011000011000111111111111001110000001111, 
111000000111111011000011001000010000111101101111110110000000111000111000000011001000000010000011101111100001111110001000101001111110110111010010111001001111110011,
111101111110011010111001010000001101111001101111001001000010000001010100110101101000000011000100001001000111000000110000000100000110010111110100000000101000000011,
111010000000011101000101000111111001000011010111110101000001010000001000111101111111111100111110100000100001000010010000001101111111111000101001111110110111101010, 
000001000000000010000001011111101101111101100111010110000000000111011101000000100000010001111111101101101111000010001110111110111101000000101110111011110000000010,
110101110000000111000011011111111000000011111000001010000010001000011100111110110111010110000000001111011111110001010111001011111110000111111010111110001111110111,
111001101000010111111111111111101001101010101110011110111110111111110101000000111111101010111111111111110111000000111000110100101111110111100011111111101000010101,
111101110111111001111000111111101001000011001000010111000010000000100100000100010000000000111100100001001100000100110111010110001000101111111101111010000000001010, 
000001000111110010111001001000010011000000101000000100111101101000101001111110011110001100111101000000110000000001010111111011000001101000100001111000011000010000,
111110101111111001111011111111111110111110011111110000111111101000111010111110100101100110000000100001011100000010100111111111001000001111110111111010001000010100,
110000101110011010000011111000001101111110101000001110111110110111111000111011011111011010000010001111111010111101010110111011111100111000001101111101101111110111, 
000001100000001111000001101000010001000001111000001010111110000000010111000011110111101111111101100111110110111111000111101101111111000111010001000000100000011000,
111110011000000110000010100111110111000001100000000110000001011111100100000011001000011011000110101111001100000000001000010011111010000000000001000010100000000101,
000010011111111110000100111000010011000001101000011011111101010000001101111110110000111011000000000000001101000101010000001101000001011000100110110001111000010010,
000100000000010011000000101000001011111011010000001100000010100111101100000001001111010100000010111000101011111000111111110010000100001110111001111110100000000001, 
000101101000011100000101010111101110111110110000100110111110010000010001000010001111110001111111110000111110111111111000011010000111010111110011110001100111111100,
001001000000101000000011110111110000111011110111011011111110110110111101111110111000100100111111110111110110111101111000100010000011001000011001111111110111111000,
111111000000011011000000000000010000000001101000000000000011001000011010000000110000100010111111010000110110000011111111101010000001010000001101111011011000000001, 
000010100111111100000100010000001011000100101000010000111111010000100000000101010000101011111110100000000110111110100111011110000000000000000010111111111111111110,
111111101000010111000000010000001100000010100111111011000010000000000101000000001111110100000011000111110001111100100000001101111110000111111001000011010000000100,
000001011111101001000000010000110001111110101000011010000000011000001010111110011000001101111111111111000101000010010000010110000001000000111011000011011000010101,
111110111111101011111101000111010100111110010111110100110111000111010001111101110111111001101110000001000001000001000111110011000000001111000111111000011111011011, 
000001000111111101000110011111110000111101110111111000000110011000100001000001010111010011000101011000010010000111010111111111111111000111111000000000101111110100,
000000111111111001000111010000011011111101100000000000111010100000010000000010101111101001111010011001100110111010000111101010000100111000001000000011111001001100,
000000100111110101000010000111111011111111000000001000000011000000010100000001001000001001000100111000110001000010110111111010111111111111110100110110111111110101,
111101011000001100111111111000110010000010001111110001000001000000010000000001110111011100111111000111101111111111001111111110111110110110111010111111000111011110, 
111111010000001000000000111110111010111101100000010110111100001110010111000000010000011011111000100001010110110011000000000001000000011000000100111111001111010111,
111111101111110000001000011111011011111110100000010000000001111000011011000000111000001000000000111111111011111111110000010100000001111000010111000000101111001111,
000010001000001100111100010000010110000001001000000101000001111000011000111110011000000110000011100000001011000011011000010110000010100000000000001011100000000110,
111111011000000110000000010111110101111111110111111111100110000100000000111101101111111010111101110000010010111110111111110001111110000111101001000001001000011010, 
111101011111110010000110000000000010111111001111100001001000001000100011111111001111110111000101100111101011000011100111110000111111110111111101000101001111011000,
000001111111101111110011011001000011000000001000001011000001000000001001000001111000010101111100111111110000000001000000000011111010000111110010111101000000010001,
111101111111110100000011011101110011000010011111101001111101111111111000000000101100100110000011111111111111111111101111111111100011111111101100000000001111001111,
111110001000000011000110101000001111000010010000001101000000110111000001111101101000001100111111110000101000000000000111110000000010110000000000000010101111010101, 
111111011000010011000010000000001000111110110000001100111100111111100001111110011110010110000001011111111110110010001000000001111101010111111100000101111111010111,
111111100000010001000010001110110110000010010111111111000010011000001101000010101111101101111010100111101111000000110000001110111111101111111010000001011000001010,
000000011000000101111010111111101101000010111000011000111111000111111101000010110111111111111100111111111110000000010111110110111111101000011000000110101111101011,
111100101111111011111111100111111010111110010111111111000100110000100100111110000000100011111111001001100101001100101111111110000010101111010101000010000000001101, 
111101101000000011000011011000101011000010100000000000000001010000001010000001100000001011111110110000100001000001100111110100111111001111100101000010001000101010,
111111110111110100001000110111111010111111110000010101000000010000000100000001111000011100111111111000110111111100011111101100111000011000011000000000011111000011,
111111011111110101000101000000000101000011101110011100000011100111100101111111110000010101111111101000110000000001000000000011000000011110101100111001000000110000,
000001000111111001111101110100111101111110010000001010000000011000000010000001101110100011110101101000001100111111111111101000101100010000001001110011111111001010, 
111110100000000000000001100001110110000001111000000000000001100000001111000010000001001010111111011001110011000110011000010111000010000111111111000110101000000011,
111110110111101000000010010000101100000001010000000111001001011111111111111111110111111011000001000110100011000000111000000100111111010000100010000010000111110000,
000000001000001010000000010110111111000010011111111110000011100000001001000010100111101000000100011000000001000100110111111100000010101111011110111111011111001100, 
000000010000001010111101001000100010111110100000000000000011000000001100000010011111111101111111001000100110001011100111101011000001110000011000000110111111111001,
000001011000001100000000001000000000000011010000100101111010101111110000000001111111101001111011111000001011001100001000001010111101001000110001111011011000010011,
111111111000001000100000001000101101000011011111111111000011111000001010000000001000001001000000100101100011000010101111111000111111101000001010111001000101011010,
000011000111101100111100111000100100111111000000011110111110100000000000111111101000101001111010010110010111000110100000001101000011011000010010111101101111100000, 
111111010000010000111100011000001000000000110001011111111111100111111110000000100111111001111011111000011110000000000000001100111111101110010111110101101001010001,
000001101000001110111111110001000010000000000101111111110001000000000111111111100111110100000001110000011100111101111000001110000000110111100100111100000111110100,
000010010111111101111110101000100000111110110000101000111100101000100101000001000111010011000011011000011000111010110111110010111000111000100111000011010111111001, 
000000010111101111111110101000001111111101000001001010000100111000011000000010111000010001111100111000001111111111111000000000000001000001011001000001001000100110,
000010000111111000000110110110011011000000100110111010000001100000001110111111001000000000000001010111111011000010100111101111000000010110110000111110010000000101,
000000110111111001001101001111110110000001110000000010110000001101110100111110011000001100000101000101100011100111010000001111111101000000001111000111000000011001,
111110010111110011000000101111111101000010010110010110111111010000000110111111101111111101000000101000010100111001011111111010000000011110101011111100101001101010, 
111111010000010111000011011111000100000000101000000100000000010000001010111111101111110001001010101000000000000100000111111010000010101000001001000001110000010011,
111111110000000111111110101000111010111111001110000111101001001101011001111111000000000011000000100100100101110111110111111111000010001111110010000010001000001111,
000011001111110000000000110111111110000001101111011010111001110111011111000010011000000110000010011111111001111010110000000000000000000111100010000111110000001110, 
111101111000001000000000000101111000000001101111011010000010011000000011000000000000011100000001110110101010111111111111101001000111100111110111000000010000100010,
111110011000001011111111110000011000000010110000100111111101000111110101000001111111011001111011000110101111111011101111101011111111110000000010110000110000010011,
000010011111111101000010100000101000111111111111010110000011101000001010000000001000001011000011001000010011000001011000001011000010101110110101000010001000101100,
000010000111110001000000011000001110000010111000000110111011011111001111000010001001001001000000001111101111111101001000001101001110110000000010000000101001001111, 
000000001000001101111011011000101100000000111000110001000000000111000110111111111100110001111111100111111010111110100000010111110100110111110101001000101111101010,
000010110111111110111110111000001100000001100001110011000100110000011001000000011111111011111111110111101000110111011000000001000001000010000100000001111101110000,
000000100111110110000000001111101101000001011000000110000011010111110100000000011000000101111111111000011010000010011000001000000000100000000000111111100001101001,
000001001111111111111111101000010000111110011000000000000001100111111111111110010000111001111111100000101000000000111000000010010000010000000000000001110000000111, 
000010001111111110111111111000100110111110011111000001111110010111000101000010111000111011000000111000000111000000000111100110000101100111110001000010100000010101,
111111010111111110111110110000010011000000110110101010000010110000000100000000101111111100111101100000000010000000101000000110000010110111100100000000101000011011,
000000000000001011000010011000000110000001000111101000000001110111111011000001010000001000000111001000001010111001100000010010111101100110110110000100001000001010,
000000010000011001000000000111110101000001000111011011101100000100111100000010010000010111000001000111110110110111100000001110000010101111011100111101101000100100, 
111110001111101100000101010000010101000010001111111111110010010101001100111101001000000110111101100000010010111011101111111010111101101000000101001001010000111110,
111111111000010011101001100000000101111111010000000101111111000000010000000001000000001000111110100111010110000101000111110101000001000111110010111110101110110110,
000010010111101111111111111000000010000010100000001100000001100000100010000010101111111000111100100110111011000100101111111110110110111000001010111110000111000100,
111111110000010111000010011000000101111110111110111010000000111000000100000001110111111101101001100111000101000000101111110011000001100101111001111110110110111101, 
000001100000000000110001001111100100000000110111111111000000000000011000000010110000010010111110010000010100000100110000010011000010010000011110100111100111000111,
111111011000001000001011011110000100000000100000000100000011010000010001000000110110010001000101101001101101000101011111111010111111100111111010000011110111010000,
000000000111111000111111101111011000000001000111010101000000001000000001111110011000000010111111110000000111111100001000001101111111010111110101000101000000010101,
000000000000001110001010010000011010111101100111110000000000100000000000000010011111110100000011101000101010000010100000000111111111011111111000001011011111111001, 
111111111000000101000001110000001100000010011111010000101110011110101000111110011111111010000000100000000011111111010111111111111100101111011110101000111000011111,
000001001111110100000000000000010011111101100110100101111110101111111001000000110111100011000000110111011111000000111000000111000001001110011101111111110000100000,
000000110000010100111111011000110100111101011000001010111011110110000100000010011000110000000000000111110101111010100111111011000000001000010100111100011000110111,
000000000111110111000010011000110001111110010000011011111111111000001001000001011000000100000000100000101011111111110111111000000000000000011110110111110000011111, 
111111110000011000000001100000000101000000110001100110111111000000000110000001001111100100111100101111101001000000011000000110000001111000110110000001101111111110,
111110000111101011111011101111100010000001001111101101110111011111000001000000011000101100101011000000001101000010101000000010001001001110100100000001000000011101,
000000111000010000111111100000100010111111001000001000000010001111110101000010011000001100000010010111111001000110110000000101000010111111111101000110101110100000,
111110011000010011000011000000011001111111001000001001000000101000000000111101011111111110000000100000000111111001110111110110111101001000011000000110111000011010, 
000000001111101001111110110000000010111101111000001010000011001000010001000000000000101000101010110000011101111110001000001000000001000000001100000011000000000010,
000011101000010101000000110111000000111110010111111101000001000000010110000000101000000011111111101000101000000001001111110010000010100000010101111110110000001100,
000000101000001011000001011111111100111111100000001011000010111000001010111111001000001101000000110000000100000100001000000000110111011111110011000100010110101110, 
111101100111111111111110010111010010111111111000110001000101010000001101000010000111111010000010011101110111000000100111101110111100111000110001000001010110111001,
111101110111101110100100100001010011000010000111111010000010010000011111111101001000100101111111000111110001000000010111110001111111111111111001000001000000010111,
111101000000001010111100001111000010111101001000000011000000110000010101111110110110001000000010110110000101000000111111110110110010011000001000101110011000000111,
000001100111111001111111011111111111111111010000000010000000101111110110000000000110001001000000110000000110000010010000001000110110010000100000000001010111011011, 
111110101000000000000100011110101000000001100000100101000000001000000110000000111111100010000000100000100001000111010111111011111101111111011111000011000000001111,
000001110111110001111000111000100110111101101111110011000010010111101000000001001000010110000000101000001000110000110000000101111011001111111000111111001000010101,
000001000111111100111110100000100001000000010000011111111011100000001010000010101111111011000000100000010001000001001000001000000010001000100110110110100000011101,
111110100111101010000100000111110010000010000110111110000010000000000000111110011000101101000001011000011001000001111111111100000001100110001101000100111000011011, 
000001100111111101000010011110001111111110101111111010000001010000001110000010111111100110000000000111111001000001111111101100111111000000001010110011110111101110,
111111011000000101000101000000101101111110100111000000000111000111111011000001010000001101001110010111111011000011010000001101000001100111001101000011010111100010, 
111111111000000011111110000111111101000001001000010110000100100000000101000000111000111100111010111111011000000101001111111101001010001000000101110011011000101000,
000001000000010111110101000000011110111101111000000011000000111000010111000001011000010011000001110001010000000001111111110000111011001000001111000111001111110111,
111110100000000110111110011000011000000000100111011100111101011000000100000001010000100111000001010000011101000111011111111100001000100111110010111010101111111110, 
111110001111110011000000000000001110000000100000110001111110111000001001000001000111101001001010001000000010000001100000010010000101110000000011000001111111111110, 
111110100000001101000010000111111010000100001000011001000000010111101101000010000111111100000001110000001100111100111000010101000001000111111000000100101000011011,
001000110000001110111111110111111010110111100000011001111111000111101110111101111000000011000011101000100011000000000111011010000000000111011011101111001000011110, 
000000100000011101000001101111101101000101101000011010111111000000010011000010000111111011111010111111001101111101100000000011000011100000101010000011000111010111,
000011110111111011000001101000000000000001000000010001111110100000001101000000100000101110000011111000011001000001100000100010000110000111110011000001101000000110, 
000000000110100100000001010000000100111010010100111101000010011000010001000000011000100101000000000000011010000000011000111101000100000000001001111111010100000011,
000001000000110100000011010111111111000000100001010100111111011111110000000000000111111110111110011111101011111101100111101101111111001000000110111110011001001000,
111111110100111010111111111111111101111111000111100000000010101111111011000001110000100010000101110000001101111110001111111000111101010110111110000000000111010100, 
110110001100111100000001010000000111000000011111110101000001000000001111000000011000010011000110001000000001000000101111111000000001011000000110000101001100001010,
000000101111111101111101000000001111111010111000100011111101001111111010000010000111101101111111000111111110000001000000001111000000101000110001000000100110111111,
000001011000001100111111001111111101111101111000000110000000011111111010000001000111111001111111000001010011111111100000001110111100110100000000110011011000011111,
000000001000010110111111011111110100001000011001000110000000101111110111111111010111101000000011010111011011000000000101110001000001101000100110111110001111101111, 
111110110111111001000011000000000000111110000000000011000001001111101100111101101000010010000000010111010100000001111111111111111110011000000000000000100000110011,
111100111000010000111111111000000000000001011000111110111101101000000011000010011000001001000000000111011110000001100000011011111110000000000000111001010000100111,
111000111100000000000000000111111010000001100000101010111101111000000000000011001111110110000010101000001011000001100110110000111110111000011001111111101100110110,
000001000111111101000000001000001100001000000000100100000010000000010011111110001111011101000010000000011001000000001111111000100011101111101111111100111111110110, 
000010001000010100111110010000000101111110000111011111000001101000010011111111110111110111111110001000001011000001001111010011111111111000001010000000010111111110,
000010001000101011000001101111110101000011001001000010111111110111101001000001110111111000000010001000100011111101011000011011111111011000000001111001111111000010,
001001001111111010000000101111110011110010111000000011111101111000000110111101111111111011000000111111111010000010000111111101000110100000011111111111110000001101, 
000000110111110010000001100000001100111110111111101110000000011000000001000010010000010100110011001111100011000000000111111001000000011000000011000011011100000110,
000000001111011111000000111000001110110000010001001001000001110111110101000000101000001001000111101000000000000000100000001110110111111111111001000011110101111001, 
111100010111110110000001100111111110111111111000000011000000101111111101000000011000111111111111100111110001111110010000010101000000010000001100111110010000100010,
000000000111010100111110111111101000111110001110101111111111010111111101111111000000001001000010100111101111000000000000000110000000011000011111111111100000001101,
111110010000001101111110010111111101111111100001011111111110001000010010111110000000011010000110110000010010111111011000000011001000111000010010111110010000010001, 
110110101000010110111101100111110000001001110111101110111111001111101010111110010111000010000000110111110000111101111111111000111111111111101111111101011111111001,
111011010000100000111101100000001001000001101000000011000010111111101000000001001111011010110110010000011111000001100111110101000000100000000000111111000111110001,
000010010000000111111110011111101011000110011000110001111111111111101100111101101111111110001010000000100101111110010000010010000111001000111010000011111000001101,
000110001000000010000000100000001100000000001000010001111111100000010000111111100000000011111111101000101000111110111111001001111100000111110000000100110000101000, 
111111110111110001111110101111101111111110000000000000000010100000010011111110111100101001111100111111011010000001000100101110000001001000001001000100100000011001,
110111101000000010111110101111110001111111110110101101111111001111110011000000000111011001111010101111110111111111011110101100000011110000000001110110001000000010,
001010110000010100000010001111101100110100101111010011000001011111111100111111110111111111111100100000010111000000111000000101000000110111110110111101000001000110,
001001000111101101111101011000010111000101001000001010111101101111111110000000010000010111000011101000011101000010011000100101000000000000001010111011011111100110, 
000000101000000001111110010111110100000001001000010101000000111111101010000000100000010000000001101000001010000010101111100110111001111000100000000011100000010010,
100001100111110100111101001111111101000101101110101110000010100111111101000000001111110001111101100111100110111111101000000101111101101000010111000101001111111001,
111011011111110001111111101111101111110010011111001001000010010000001000111111100000010011000011111111100010000000010000011010000011010000000000111011101000000010, 
111100010000011101000011000111111001111110001000010000111110000000010000000001100111010111000011111111111000111101011001000100111101111110100101111011011000001110,
000010101111110101000000001111111011110111100000000111000010000111111100111110101000100000000010110010000100111101110000101111111001001111111101111110110111100000,
111111111111110111000001000111101011110111010000000010111110001000011000111110001000001110000001111000001011111110111000010010000011110000010101111111100000000000,
110111111111110111000010000000010110000000100000001011000001100000001000000010100000000110000010100000100110000010111000100001110110010111011111111100111000011000, 
111101010000111011000000011111110010000010111111101001111110011000001000111101001111101101000111001000001011111111111000100010000000000111101010111100110111111001,
101101001000010100000001110000001000111111101111011010000001000111100111111111010101100110110010010111111011111110100000000011101101001000011011111111001111000101,
111100111000010011111110011111111011111111000111111100000000001111111100111111000110110101110100110111110101000001110111110000110011111111110101111111001000010100,
000000000000101110111110111111110000101100011110001101000000110000010100111111111111110011111110111110111111111111010111011111111111100000000110111111000000101110, 
111111100000000000111110110000010001111110101111111100111101101111110110111111100111111110111111010000100000000001011000100100111100110000011111000000100111010001,
000011101000000111111101010000010101111111110000001101000010000111111110111111001000000011000011101000010000000001010000000101110011001111100101000001100000011110,
000010101000001100111110101000000000000011011000000011111111011000000100111111110111001010000000101111111100111110101101100101111011100000001110010011001111110001,
111100110111111110111101001111111011110011011111011111111110000111110001111111011000000000110110001000010101000001010000000110001000110000011011111101001110110011, 
000010100111111111000000110111101101000000011000010100111111110111110011111101001000000111001010101001001011000001001000010010000110110111111100000010110000001000,
110010110101110110000010111111110011000011000000000101000000011000010010000010011000010100111111100000100101111101011000001000000001111111100111111110101111111100,
000001010000100101111101111111111000000001011111111111111101110000001001000010111111110011000000000000010110111110111111100100101110011111100110000000011000111010, 
000001111111111110000010110111111010110100100111111101000010100111110100111110000000001110001001100000000100111110110000100101111010010000010110111000010000010111,
000010001000011011111110001111111000000001001111011100000001111111101101111111000000010111111111100001000010111101100000100001000000001100110000111011001000001111,
111111110111101110111100110000001110111100101000011011000010010111111001111110001000111000000101100000110110111101000000110010111100000101001111000010000000010101, 
000001100000001011000001111111110101000010011000010100000010110111111011000001011111001001111101011111100010000001010111101101000111000000000001000001110000011100,
000000000000001000000000110111111111000010110000001000111110100000010011111101011111111101111110111110111111000000110111111100000010100000101000000010111111110010,
001000111111111100000011000000000100110101100000001101111111101111111110000001011000110100111110001111111110000001010000001001000001110000001110111101011000100100,
000001010111001100111110001000000001000000000000010101000001100000010000111100110111111000001001101000011101000001010111111101000011011000010001000001001000011110, 
000010001111110101111110001000000010111010000111011011000001110000010101111110000000001100111110111110011111111110001111111010000100011000000001000000001111000110,
000000001000010110000010001000001111111110110000000011000011000111111000111100110111101100000010001110111111000001010000000110110000001000001001111000111111100010,
000110111000000001000000000111111111000100001001101101000000010111110101111110110000101011000001001000001011111110110000011010000000001000100011111111000000001111,
000011010000000010111111011000000101000010011111110110000011001000001001000001101000110111000100000000000000000001011000010000000010011101100001110011110001001110, 
001010110000011000000001100000000000101111000000000111000010000000000001000000100000111010111111101000100001000001111000011101111111011000001111111010100111111111,
111100100111010010000001100000000011000101101111101100111111110000000100000000011000001111000010100000100011000010100111111101000000000101001011000001101000001110,
000011010000000001000000000000010111111110010000001111111111010000000101000001111100000000111001011111110001000001011000011110000000001000000100000001011101010000,
000101111000011110000001010111111100111100111000000011111101011111110001000010010111101001111001100000011000111110000111111011000000001000000100000101000000011110, 
000101111111111101000001010111101010101010010110111111000000100111111100111101110111111100111000101000100001000010001000011011000100010110110011000000110000001100,
101101111111100011000010001000001101000100010000110110111111101000001111000010000000010111000000001000010111111110010000010100000011001000000000000100011111110100,
111111101000100101000001110000001000111111010001001100000000111000001110000000010000001001000000010000001000000010010000000100110100111111111100000000001000111001, 
000001101000000100000001100111110001111110010000001001000010100111111101111101001000100011111010100000001000111110011000000101000100111000011111000110111111101111,
000001101100000111000000011000001001111100000100000000111110011111111011000010101000010011000010000000010001000010110000000111000000001000011011111111000111100100,
000100011000001101000001100000010000111100100001000011111110001000000011111111110000000010000010101111010010000001110111101100111100101000010101111111010000010100,
100100111111101100111111101000000101111111101000000110000010011111110100000000010101110101000010010000000000000010101111100101000010011000010110000101000100111110, 
111111111000001110000000001111111100000011100001000011111101111111110101111110100000001111000001100111111011111110000000001101111111011000100011000001110001000000,
000101001000000000000001101000010010111111101111110111000000001000001010000010111111111101111100101000000011111110100111110010111011101000110100000010001000010000,
000010011000110010000000001000000000000000001000100000111101011111110101000001100101110011111110101111100011111110110110110001111100010111110001000001100000111111,
111111010111111011000001111000010100111000000110110100111101110111111001111111110000001110111101100000100001000000011000100001000100001111111111000001000111000111, 
000000110111111001111111101000000110111110100111100101111111100000001001111110111010000010111101011000010011111101010000011101001000011000000011000001000000010100,
111111100111010101111110101000000111000001100110101010000000100111111100111101011000101111000000001001010000111101100001001000000010101000000010000100011111101000,
111110111000010010111101110000001010100000000000011011111110011111101110111110000000011010000001011111110011111111000000011001000011000101110110111001110111110101,
111001110000001010000001111111110111000001101000000100000001010000000100000000000111101101111111000111110001000000110111010111111110011111111010111111110000110001, 
111110011000101100111110110111111001111111011000010010111101010000011010111101110000011100000001110000000110111111010000001111000011111111000001111101001000100110,
111001110000001011111110101000001100000000100111011100000001000111111110000001000000000100110111010111110011000001011000100101001100010111111010000011011000001110,
000100010111111010111110111000010100000010101000100111000000111111111110111110100000110110001100101111110010000000110111111000000100011000010111111110100001000101,
000101101111111101000000000000000111000100110111111010111101101111110000111111010000111000000011100000000000000001010000010111010000110000000011111100010111110111, 
000001011000001111111101110000000000000010000101101001000000111111111001000010011000100001000000011111111011001001101111111011111101010111101100111111011111011101,
111101101111111101000001110000100110111111110111100011000000100000000000000010001000000010000010001111101100000010001111101110000001100000000000000011110111111010,
000001111001010101000010001111111101110010000000100001000000001111011100111111010110100000111110011111111001110001011000001000111111100000000111111101100000011011,
000001011000100100111110100000110001000000101110000110111110111000011000111111110000100001000001101111110100000100100111110101111001010000010100000010010111011110, 
111101101000000011111100101000001001000001011000111010111110101111110111111111110101010110111101001111111011111011100111110001111101101111111001000000001001011000,
111101110101011110111101100100000010000010101111110101000001110000011011110100000000011011000010100110101000000001100000001111000000110000010011111000011110101100,
000000101000000000111111010000011011111111000000110110000010011000001110001001000000010001000011001000000000111110010111110111111011100000010100000000000000111000,
111111011101111011000010000111010111111110011000111011000000010110000111111111100111100000000001010000010001111010000111111110000010000000000011111111111111110111, 
000001010100111100111110001101001100000011001000001010111110111000000100111111111111110101000010000000000111000100010111101110000010101000000100111011100111111001,
000010110000100110111101101111111100000000010111001011000010100000111111111111110000011110111101110000001111000011101000001000111101001000000111111111101111010110,
111110010111111011000000000000100100111001111111110100111110111100001100000011010111111100111111111000001001111111110000000000111100001111111001111111111111100101,
000000000000011011111110110000000110000010001000010000111101010000100011000010000000100000000000101001010110000010110111110111000000010111110010111110000000000100, 
000001110000010011111110100000000011000011011001010101111111001001010001111111100111001110000100101111011100111010101000001100000011010000010110111100111111110010,
000000001000010001111111000000010011111101001000000100111111111111110111000001010000101101110001010000011001111100001111110010110001110000001010000010111101100001,
111101110101010101111111111100100110000011000000011000111111001000001010000000011111110000000001010000101011000011001111111011000101101000011001000000100001010010,
000000010111110110000010001000011111000000011111011111111101011111100101000100010000001011000000010000011000111101010111110111101001011111101110000101101111101010, 
111110110111011000000001111000001001000010001000101001000001101000000100000010101111100001101110001000001100111011000111111010000000111000001101111111110000100110,
111110110000111100000000011000111000111101111111011110000010001000000100001011010000010010000000000001001110000000001111110111111111001111111100000100100111111101,
111111110000011010000000001000010111111110011001000101000010110000001100111100001111111011000111110000001110111110010000001001001001001111111010101110111001000000,
000000101111010011111111110000001011000100010111100000000000110111111100110101100110110110111110100000001000000010001000001110111010100000000101101101110000111000, 
111101111111010111111110010000000000111101110111111110111101101000000011000100000111110000111110001000101010111100111000001110110111010111100111111100100110111011,
111110100110010011111111100000000001111111100111111111111110101111100000111111000111111001000111010111100111000000000000000000000000001000001100111111010111110111,
111111000111001111111110101111111011000010100000001011111101111000010100000001110110001110111100101000011011111011001000010010101010001111101011000010110111001011,
111111011000000011000000000000011100111111001111110100111111111000010010000110110111110111001011111111111101111101010111101100001000101000010010000011011111111001, 
000001111000000100111101100000100110000011100111011011000010011111110010010011000000001110000010011111111101111111010111110010111101001111111010001001000000001101,
000000100000001100111111011000010100000010011110011100111110111111110000000101001000111010111111110111101101000010001111110001111110001111110000000011000111001101,
111101000000100011111101110000110001000101000000000110000011010000101111000101100111111010001010101000100000111100101111101110000000000111101010001001110000011101,
111110111111110000111110100111100111000100001111100100000001011111110100000001101111110000110101010111111100000000000000000110000000101000010111000001101001011011, 
111111000000000000000000000110000001001000011111011001000010010000010101000000000111011110000000001111000100000000100111101001000011010000000010000000111000101110,
000001110111010011000011000111111100000100000000001101000010000111111110000101001111101001000010000000001101111110011000000110001001110000000110000010101000111100,
111110101000101000000000010000101001001111001000000101000010010111111011111100111111011000000000000101101101000000100111111111111111101111111010110010001000000001,
000000000111100100111101101111100010110000001111010100111110100000001000000010000000011001000000110110001010111111011000000110110010000111111101000100000111001000, 
000000010000011001000010011111111000000011100111001010111110000000010111111110100001000000111110100000110100000011000000001101110111101111110011000000110000010010,
000000010110111100000000000111110001111111101000010110111110001111111110000010101111101101000000111000011101000001100111110100000010100000001101000010111000001101,
111111111111100101000001101111111010111110100111010101000000001000001000111101101111111010000001001111111001000010111000000111111110000111101100110111001110111111,
000010110111110010000010100000000010111011110000000000111101111111100111111111110000101000111101111111111110000011110000001111000000001111111001111100110110011111, 
111101101000010010111110001111111101111111010111101000111110001000000010101101111111110001111110110111100000000000000000010000111111011000000011110101100111010111,
000001001111000001000001101111110110111101110110110110000010011000001011111111001001001100000001000000000100010011011000010000000000011000001010111100000110101001,
000001000111111000111111111111110010111000110110011000111110111111001001111111011000001001000001000111101110000010001111111111100110011000000101000000100110001110,
111101011111011000000000010000011011111111001110011100000011001111011111111110101000011011111110100000100111000010111111101111000000001111111111000000101111100011, 
000010010000011010000010010000101010000000001111010101000011000000010011000000010000000110111011100000100010111111101111110100111000100000000011111100111111001111,
000000110111010111111101111111111001111101110000101001111110011111010100000010110111101110111100100111001110111101001111111110111110110000001000000000000001010110,
000000001000001001111110001000001000111011111001000010000000010000001001110100000000011100000001111111110111111101001111111011000010100111111000100101000000011001,
000000000000100110111110011000000010000000101110111111000010010111010000000000010000001010000001101000000001000011011000000110000101110000010011000000110000001110, 
111101110001101110000010100000010110000011001000010001111110101110100111111111100111111000000010010111100010111101011111101111110111101000010000111111111000000111,
111110001000000000000010111111101100001101001000000001000010111000001111000100000111111000000000001111111101000100010111101100000011101000001101000010100000111101,
000000011000101000000001000000010110000011100110101110111110101000000011111101010111111100111000110000000001000000010000000101111011111111111101111101001111100100,
111101011000011100000000111000011011111111000000001100000011000111111111111111010111111111010101010000001011000001110000001011000110010111110001000000001001001111, 
000000100111111110000010001111000011110110111111011000000001011111011101111101100000001000000000100111100000000011111000001110000011011111110110000011010000010110,
000001010111100001000001011001000101000011001000001110000010101111110000111110101111001000000001011000001011111110000000011001111110101000000000000000101000011010,
000000011000000001000000000111111001110000000000011011111110101000001100000001111110101001111110101000011111000010011111101010111110110000000000111001010111101000,
000001111111100101111101110000010111110101010000000100111110011100000110000000010000001011111101011000000000000010111111111000111101111111101111000001001101110000, 
000010001111100010111111011111111010111100000000011101000001010110001101111110111111111001111100110000000000000010000000000001000000010111110111111110101000100001,
000001000000100110000010001000000110000111111111111101000000101000100101111101101111110101000011110111101100000011000111111011000000000111110011111101100000011101,
000010011111111111111110011000110110000110001000011101000001100000001100000001011111111100000001011000010100110101011111101001110111100000000011000101001000111010,
000001000000101001000001010000000011000010000000100000000001110000001111110000011000100101000001001110111100000100001000000111000001001111110010101011110000011101, 
000000001111111111000011001000010100111111101111101001111101110000001101111111111111110000000010000111001101111110010000001111000010111000000101000001111000011000,
000000110000010101000001110000000100110111111110010111111101111000001101111110011000111100000001101000000011111111101000000101110001011111101001111010111110111001,
000001011111111000000000110000111001110110100111101001111101011000000001111111101000000110101110011000001001110110110000000110111111010111101010111111101000011100, 
111111100001010010111101101111110011111101100000000000000011001000000110111111101000010010111111100000010101000000111000001000111110111111101101111111010110110110,
000010101111100111111111101000000000111101011111110100000001011110011001111111010000000000000100011100000000000000011111110101000001111000000010000000101111101111,
000000100000110010000000011000001000000001011001001100111110111111111001100110100111110000000001001000000110111010101000011001111010011000010001110010010110101111,
111110100111101110111101101111010001111101110000001111000000000110110010000001001111110001000000000000000110000010101000011011001001000111110010000001101000101100, 
111110100000001100111110110111111001111111001000001011111111001000000010111111100000001000111000100111000101000010100000000000111111010000011001111111011111111001,
000001111001101000000010111000110011000001101111101111000010011000000011000011101111110110000000010000111110111101111111111100111111101111110011000000100111101011,
111110101111010011000010101000100110111110101000100100111110011111100000000000101101010010000100000111100010111110100111110110001001000111111101111001110111111001,
111111011110111110000000011111011010111101101110001111111111110111101000000010010000000101000101001000010000000111100111110000111111100111110001000100011000001101, 
111100110001000110000011001000101000000001000000001000111111011000000011000011111000000100000001011000100011000000101111110010111111001000001000000100111000001110,
000000101110100110111110101111110000000100001000110111111101101000010011000000101101101010111111100000011110000010110111101011000101010111101101000001111111110011,
000010011100111010000011011110010001000011110000100111000010000000010001111011100111100110000010101000000001000000111000000101111111011111110000111100111000000111,
111101111000000110000001010111000101110101001000011010000001100000000111111110110000010010111110011000010000111010010111110111111011100000000101111110000111100111, 
000000000000000011000000000110011100000001111110001001111110001000010101000101010000001101111101110000111101000000001000000111111110011000001011000010011111100110,
000001011000001000000001101111111100000010001111101001000010100110101001111100011111110001000011100000000011000011010000001010000010010111101110000000010000001010,
000001000111101001000001100111001111000010111000110010000010010100011010000001110000010010000001010111001011111111001000000101111001100111111010000000101000000001,
000011000000110010000000100000000001000101010111110110000001111000010100000100000000010010111110001111110101111111000000010101111010011111110011000000000000011000, 
000000000110101011111111010000001010111111111111101101111111111000000100111011111000000010000011001000010011000010010111110001110011010000000011110101100111001100,
000000011111010111000001010111110010000001101111000011000010101111111010111111001000000111000010110111111000000100111000000001111111010000010100111111011111110010,
111101101111110011000010111000000001111010100111110001000001011111111011000001001000010001000010001110000011000111110000000000000000100000001111000000100000001011,
000001010000001110111101100000011001111101111001010001000000000111000001111111010000011010000010010001000010000000010111101011000001110111101011110111111000000110, 
000000001111000011111111000000001011111111000000100001000010000111111101000001101000000011111111110000000100000010000000011010111100111111110010000001111111010001,
111111001000011000000000000111110110111100000111100111000001011111100111000000101001001110000100100111100101111111110111110011000010101000010000111101111111100101,
111111111111010111000000100000100110000010111111101000000010010111111101000011100111101110000101000111000011111001110000000110000101011000011000111101011000101001,
000010101111110111000000010111100100111111111000101101000000010000100100111110111000010100111110100000011000111110011000000110000001111000001010000010010111010010, 
000000011111011010000001101111101000111001010111010110000010010000000000000000000000001000000100000111111011000000110111111111001010001111101000000010011111110011,
111111011000000000000010010000100010000110010111110101000000101000111110000111111000101010110111000111111000000000001000000011111111110110110010110000001111110100,
110100011000001110110010000000110100000100000111110111000010101000000100000101110000100100111010001111110011000000000000000000000000000111110000000000000111111001,
000010000111111101111010111000100101000001111000001110000100011000000101111101100000010110000000010001010101111111010000101111000100010110101110000001111000001001, 
101111010101110100111011110000001110000000100000010101000010000000000111000111110110010100111111101111101100111111101000011011101111101110011110111101000000011000,
000010100001101001111110101000010110000011101111110110000000101000100001000100101000100000000110101000001010111111111111010010000010110010000110001000110111010101, 
101000110111100101000101001000100001000010101111101111111011101000000111110011100000010011111010010000000000111100111000001111110100101111010110111111001000010110,
001010101111110001111011110000001110000010100000011110000011110000000100111101101000100010111010100000111110000010101110111111001001000000100110000010000000001010, 
000010100111110101111110111111011111111110100000101001111110100110000011000001101000011100000001011111110001111110000111110010111111001000011010111101000101001010,
000010100111111100000111010111100000000000110111001111100101001000010001111101101111110110000011110000001101111110101000011000100110101000010000000000001111110111,
111000011000000000111110011000011001000101011000010001000101001000010011000001011111010101000000000111101100000000011000000011111111000001100110111100111100000000,
000110100111100101000000000000010110111111000000110100000000000111100010000000001000101001111111110000110000000000011000001111000101000000001000111001100110111011, 
000000001111111000000011100000010111000001001000010010111100100111101001001001101111011100000100010111101110111101111000110010000000000000100011000100100000010001,
000000010001000110111110100100101010000010001111010000000001000111110100000000001000000001000101110000000011111110001111110010000100010000001111000010100111110001,
000000000111101100000110010000010100000000101000011111000111100110000110000110000111100101111111011000011010000000001110111100000000100111111011110101011000001000, 
000111001000000000000100001110001000111111001111001000000000110000001011111111011000100100111110010111101110111110101111110100000001101000001110000010011000001011,
000101110111101111000101011000010100110001001000011110000001010110110001000010011000110011111111100111111000000000000110100010000100101000100101110111001111011000,
000111100000000000000010111000001011000000000000011101111000001000001111111011000000010111000000001000000001000000101000001010000011001000001000110101111111100101,
111110011111110001111000011001000010000011010000001110001001110000000100001001100000011101000000001111111111111111001000010101000011001111100000111010011111111100, 
111111100000101100111100100111011001000100100111111011000001001000101010000011101000001110001010110000111110111101101000010101111110110001000100000101000000100100,
000000110111111000000100100110101000000010101000001000111100110000011010111110100101000101000001000000001001111111001000001011100000111000011100000011111111111011,
000011110110111011000110111111101010111110101000001001111000010000001000001011001000001010000101101111110110000010111111111101000000011111111100111010101000000010,
000011100000011100111001010111110101111110110000100100110110010000000000000010110111111100111101110000001010000010010111011000000001010001000101110010100111010101, 
000001000111101000000001000000000110111101001000010010111111001000010000111010011000110110111111111000000100111101001000010001000100110111111111000000001000001010,
000011001000001000001101110000000100000010111000000100000010010000111111001100001000111111000110000000010010000000011000001111000001111111101011000011010001000011,
001001111111100110000000010000010011111111001000000111111101000000011110000011101000001011111010110110110111111111011000010101000010101111100111111001110111111110,
110001110110011010111010100000101110000000101000101101000100101111101001111101110111101011110110110001001100111111010111111111111110011110111011111111111000001000, 
000010110000000111111101000111111011001011110000000101000000110001010011000111111001100010000100111000001101111110001001001010000010001000000100000001100000101110,
000001100111111111111001000000001000000010110111110111000001011111011001111111101000101001111111001000110010111111100111100001000000011000101101000110000000000000,
101111010000011000000000111000000011111110110100000000111111110000010111111100110000000010000001100101100101111101110000010011101010010100100010000100110000011011, 
000011001111111000000110111111101011111111101111110110111100101000111011111100000000000110111100101111110010000010011001010001000010000110100110111010001000000010,
000010001000101010110111101000000010111111111000001101111110100111111110000001001111110011000110100000111011111110110000000001001001100000001110111100011111111101,
000000001111110111000011010000010100000001000000100111000010100111101100000100100000110011000001001111000110000001001111101101000001110111110011111101111000000000, 
111111010111110010000110010000111011111111011111111100000111001111101110000101000111100110101111100111110001000010101100100010000001100101101010111101110000011111,
000010101000000011111101001111011110000001011101110010111001111000001000111000111000010011111100101111101011000010010000001000000010110000000100000000110000000000,
000011101000000101000010010000011011001000101000011011110011001000001011000110001000001001100100110000110001111110111000000010000011100000001110111101110000000101,
000001110000101101000000011000010111110110011000001010000011010111111010110010001111010101111110101111011010000001011111111101000110011111110001111111011100101010, 
111001111111111001111001010000000011111011110000010111000000110000011010111111101111111001000001000000010110000001110000001010000000010111110001000001110000001011,
000000100000010111110111011001000000100111101111101001000010101000001001000001111000000000110000001111111010111101100000110111000000100000111000000000000000010001,
111111100111010111000001100000010100111111101000001010000001111111110111000011101000101101101010011110110000111111101111101101000001000000000101101111000101011010,
000000011000110100000100110111111110111111110000101101000000000111110101000001000000110111111100100000000111111101100111001010111111101000001100111101100111110111, 
000000010111110010110111000000000100111111000000010011000011010111111110111111010000010010111000001100000000111110110000110000000011000000000011110010110000000110,
000100001111100010000010010111110011110001111000001000000001100101011111101111000111110011111111011111011000000000111111010111000011010111101001000011011110001001,
000101101000001000000011011000011011000001111000011111000010100000010010111111001111010111000000111000110010000000011000011100000101110000100110000001101000000011, 
000011111001010100000000000111111111110111100000010001000001000000010001000001001111111110000011110000101001000010011000100101111011111001001011000010100111111000,
111111000111110000111111001111111110000100011000000010000111000000001100111100101000010110111111010000001101000001010000000111000000110110011010000010100111011110,
111110011111101001111111101111110100111110110100110111000000010000000001000001111000000000111111000101111111000000101000001001111001001111110011000000000000000011,
101111011000101001111111011000011110111111110000100110000000011000001100111101100110101000000000110111101110111110100111011010111010000111110000110111011000101001, 
111101001000000000111100011000000110000001100000000010000011010010011001000100100000110100111111101111111011111110100001000000111111110000111101010011011111110010,
000000100000111101111011000111111001111111100111011110101111011000010001111111100000111101000010111000000110000001111000000110000001000000011000000010001111100101,
000010111000010111110101101111101011000001011111011101000011110000010011111110001000001010000000010111111000000000000000001101000101001000010100000011001000001000, 
000001001000001011000001100000000010111111100000010000110010111110101000001001111000011011111111101000000010111101100101111000000001010001000001110110010111101011,
111111010000111010000000000000000000101011111000010010000101100110011111101111010111101111000011110000111001111110001111100111111110001111111100000011111101101111,
000011001000100010000011000111111000111011001111111101111111011111001001000101111000001011000010000000111101000000101111110100111110111000011101000000000101110110,
110100000000001111111100101000000111111111111111101010001010010000000000000011001111110101000000010111011100111110101000000101111010101100111010111111110000011101, 
111110011111001110111100110000000101000001001000001111111110110111101101000000100111101011111101100000001001000000101000011011111101010110111101111111001000010100,
111101001111110100001000001000010111000010110000010010000001000000001000111101010111101101001001101000001111111110101000000111111111011111111110000011000000000100,
111110110111101100111101101000000011000111001000010011111110101000010010111100110001100101000000101111111111000001001000111110000011001111011110000101100000010001,
111110111111000001111011110000010111000111011000110011111110010000000110111111000111101000111110101000010011000000000000001101000000000000010010111001111000011110, 
000100100111110001111110110000000101111100010000011001000010100000010010000000100000011001111110111000011010000000011000101101111110011000010110000000101000000000,
110110011111110011111100110000001010000010101000011101001100011000000010000011110000000000000010101000010100000000101111111010110101110111100101111100000000011010, 
000000111000110100000010011000000001000010011111001110000001101000011010000100011000000110111111001000000110111101111111111100000011101000010111111010111111110011,
111111001000100010001001101000000001111101100000000100000011111000000001111111000000001010000000100000101001111110010111111000111111110111111010000011001111110011, 
000011010000011101111010010111111010111111100110011011111011111000011100111110100000001101111110100111101001000001110000000110000001011000010100111111111110110010,
000001011000000001001001011111110100000010001000011101111111110101001011000000000111011000000001111000100100111101111000011111111011000000010001000011101000011000,
000000001000000010111110001000010101111111011000000110001100001111111010111111100111110011000010100111101001111110110000000101000000100111110110111101000000000101, 
000010110000000011111011000110100101111001110111111010111111010001001000110101010111101000000001010111111000111111010000100100000011000000000100000010010111110110,
111110101111110111001111000111111100000110110111100110111100100000101000000001101000001011111000011111001000111111100111011000111100010111111000000011000000000001,
111111101000000101111110011000101001111111000111010011111111010110110011001001010000000110000001000111111110000001011111001110000110100000101000110110111111111100, 
000010011111111000000111011100111100110100011111101101111101101000010011000011001110100010000111010000100010000001100000110001110101100000001010000100100111111011,
000100010000001100111101111111110010001001001111101101100000000000001100110001000000111100000010000000001110000001101000010110000001100001010010000001111000010101, 
000010000111011001111000101111111100001011000000010111000011100111110001000010101000001100110110000000010100000000001000110100000000101111001110001001101000000100,
111111110110011110000100111000000011000000110111100110111101000000001011000000000000001010101011100110000000111111110000001110111001001110111110000000101000001110,
101101001000101110111100100111001001000011001111100010000011010000010010000001110111011011111110000111111101000001010000000100111000101111000000000011110000110111,
000000001000010111000111010111111011111010011111111110000010001111101111000001011111110001111001110000001000000000000111011011000000100111100011000000100110101011, 
111111100111100101000001111000010100000010011000000011000111110000010001000000000111110011111111000000001111000010000000000001000101001110100000000111001000010010,
110010001111110010000000000000000001000010100000010111111010011110110111111000100111011100000101110000000110111111011111010001111111111000011101111000110111111011,
111101010110001011000100101000000101000100010000010100000000001111111110000010110000001010000001001000011110000001100000011111111110001111101101000001001000000010,
111110110000000011001000010000101110000011010000111100111010101000010001111111011000101110111111101111111111000010001111110110000100010111110010000000110111111101, 
000011010000010001001010001101011001111101110000001001000010011000000101000011000111100111001010101000001000000001011000000001000100000000011001000010000110011000,
111111111111110000110001110000011011000010100000000001111001100000011000000001000000100011110000110111111111000001000000110001000011110000100001111001010111100101,
111101010000000001111110010000001010000000100000101010000001010000101100000001100111101001111111110111111111111110010001001010000100111111011010111101000000000101, 
000011101000011100000011011111101000111100000111100010111100011000011010111000001111110100111110000000101010111111110000011011000011000111111110000010110111111110,
000110110000000101001000110111110011000111011000001011000011110000000111000010111111111001000101000000010011000001000111101000000000001000001010000110101000100101,
111111100000011000111101101000000000111110110000010111111111011000111111111111111000010000000101011000110001000010000001010011111110111000000101000010100000000011;